unsigned char mnist_cnn_int8_tflite[] = {
  0x20, 0x00, 0x00, 0x00, 0x54, 0x46, 0x4c, 0x33, 0x00, 0x00, 0x00, 0x00,
  0x14, 0x00, 0x20, 0x00, 0x1c, 0x00, 0x18, 0x00, 0x14, 0x00, 0x10, 0x00,
  0x0c, 0x00, 0x00, 0x00, 0x08, 0x00, 0x04, 0x00, 0x14, 0x00, 0x00, 0x00,
  0x1c, 0x00, 0x00, 0x00, 0x88, 0x00, 0x00, 0x00, 0x08, 0x01, 0x00, 0x00,
  0x78, 0x17, 0x00, 0x00, 0x88, 0x17, 0x00, 0x00, 0x2c, 0x26, 0x00, 0x00,
  0x03, 0x00, 0x00, 0x00, 0x01, 0x00, 0x00, 0x00, 0x04, 0x00, 0x00, 0x00,
  0x9e, 0xe7, 0xff, 0xff, 0x0c, 0x00, 0x00, 0x00, 0x1c, 0x00, 0x00, 0x00,
  0x3c, 0x00, 0x00, 0x00, 0x0f, 0x00, 0x00, 0x00, 0x73, 0x65, 0x72, 0x76,
  0x69, 0x6e, 0x67, 0x5f, 0x64, 0x65, 0x66, 0x61, 0x75, 0x6c, 0x74, 0x00,
  0x01, 0x00, 0x00, 0x00, 0x04, 0x00, 0x00, 0x00, 0x6c, 0xff, 0xff, 0xff,
  0x10, 0x00, 0x00, 0x00, 0x04, 0x00, 0x00, 0x00, 0x08, 0x00, 0x00, 0x00,
  0x6f, 0x75, 0x74, 0x70, 0x75, 0x74, 0x5f, 0x30, 0x00, 0x00, 0x00, 0x00,
  0x01, 0x00, 0x00, 0x00, 0x04, 0x00, 0x00, 0x00, 0x42, 0xe8, 0xff, 0xff,
  0x04, 0x00, 0x00, 0x00, 0x0b, 0x00, 0x00, 0x00, 0x69, 0x6e, 0x70, 0x75,
  0x74, 0x5f, 0x6c, 0x61, 0x79, 0x65, 0x72, 0x00, 0x03, 0x00, 0x00, 0x00,
  0x5c, 0x00, 0x00, 0x00, 0x2c, 0x00, 0x00, 0x00, 0x04, 0x00, 0x00, 0x00,
  0xb8, 0xff, 0xff, 0xff, 0x14, 0x00, 0x00, 0x00, 0x04, 0x00, 0x00, 0x00,
  0x13, 0x00, 0x00, 0x00, 0x43, 0x4f, 0x4e, 0x56, 0x45, 0x52, 0x53, 0x49,
  0x4f, 0x4e, 0x5f, 0x4d, 0x45, 0x54, 0x41, 0x44, 0x41, 0x54, 0x41, 0x00,
  0xdc, 0xff, 0xff, 0xff, 0x13, 0x00, 0x00, 0x00, 0x04, 0x00, 0x00, 0x00,
  0x13, 0x00, 0x00, 0x00, 0x6d, 0x69, 0x6e, 0x5f, 0x72, 0x75, 0x6e, 0x74,
  0x69, 0x6d, 0x65, 0x5f, 0x76, 0x65, 0x72, 0x73, 0x69, 0x6f, 0x6e, 0x00,
  0x08, 0x00, 0x0c, 0x00, 0x08, 0x00, 0x04, 0x00, 0x08, 0x00, 0x00, 0x00,
  0x12, 0x00, 0x00, 0x00, 0x04, 0x00, 0x00, 0x00, 0x13, 0x00, 0x00, 0x00,
  0x6d, 0x69, 0x6e, 0x5f, 0x72, 0x75, 0x6e, 0x74, 0x69, 0x6d, 0x65, 0x5f,
  0x76, 0x65, 0x72, 0x73, 0x69, 0x6f, 0x6e, 0x00, 0x15, 0x00, 0x00, 0x00,
  0x6c, 0x16, 0x00, 0x00, 0x64, 0x16, 0x00, 0x00, 0x4c, 0x16, 0x00, 0x00,
  0x14, 0x16, 0x00, 0x00, 0x64, 0x06, 0x00, 0x00, 0x14, 0x06, 0x00, 0x00,
  0x84, 0x01, 0x00, 0x00, 0x54, 0x01, 0x00, 0x00, 0xfc, 0x00, 0x00, 0x00,
  0xf4, 0x00, 0x00, 0x00, 0xec, 0x00, 0x00, 0x00, 0xe4, 0x00, 0x00, 0x00,
  0xdc, 0x00, 0x00, 0x00, 0xd4, 0x00, 0x00, 0x00, 0xcc, 0x00, 0x00, 0x00,
  0xc4, 0x00, 0x00, 0x00, 0xbc, 0x00, 0x00, 0x00, 0xb4, 0x00, 0x00, 0x00,
  0x94, 0x00, 0x00, 0x00, 0x74, 0x00, 0x00, 0x00, 0x04, 0x00, 0x00, 0x00,
  0x36, 0xe9, 0xff, 0xff, 0x04, 0x00, 0x00, 0x00, 0x60, 0x00, 0x00, 0x00,
  0x0c, 0x00, 0x00, 0x00, 0x08, 0x00, 0x0e, 0x00, 0x08, 0x00, 0x04, 0x00,
  0x08, 0x00, 0x00, 0x00, 0x10, 0x00, 0x00, 0x00, 0x28, 0x00, 0x00, 0x00,
  0x00, 0x00, 0x06, 0x00, 0x08, 0x00, 0x04, 0x00, 0x06, 0x00, 0x00, 0x00,
  0x04, 0x00, 0x00, 0x00, 0x01, 0x00, 0x00, 0x00, 0xeb, 0x03, 0x00, 0x00,
  0x0c, 0x00, 0x18, 0x00, 0x14, 0x00, 0x10, 0x00, 0x0c, 0x00, 0x04, 0x00,
  0x0c, 0x00, 0x00, 0x00, 0xfb, 0x3f, 0x69, 0x20, 0xe5, 0x35, 0x32, 0x8b,
  0x02, 0x00, 0x00, 0x00, 0x02, 0x00, 0x00, 0x00, 0x04, 0x00, 0x00, 0x00,
  0x06, 0x00, 0x00, 0x00, 0x32, 0x2e, 0x31, 0x39, 0x2e, 0x30, 0x00, 0x00,
  0xa2, 0xe9, 0xff, 0xff, 0x04, 0x00, 0x00, 0x00, 0x10, 0x00, 0x00, 0x00,
  0x00, 0x00, 0x00, 0x00, 0x00, 0x00, 0x00, 0x00, 0x00, 0x00, 0x00, 0x00,
  0x00, 0x00, 0x00, 0x00, 0xbe, 0xe9, 0xff, 0xff, 0x04, 0x00, 0x00, 0x00,
  0x10, 0x00, 0x00, 0x00, 0x31, 0x2e, 0x31, 0x34, 0x2e, 0x30, 0x00, 0x00,
  0x00, 0x00, 0x00, 0x00, 0x00, 0x00, 0x00, 0x00, 0xa4, 0xdc, 0xff, 0xff,
  0xa8, 0xdc, 0xff, 0xff, 0xac, 0xdc, 0xff, 0xff, 0xb0, 0xdc, 0xff, 0xff,
  0xb4, 0xdc, 0xff, 0xff, 0xb8, 0xdc, 0xff, 0xff, 0xbc, 0xdc, 0xff, 0xff,
  0xc0, 0xdc, 0xff, 0xff, 0xc4, 0xdc, 0xff, 0xff, 0xfe, 0xe9, 0xff, 0xff,
  0x04, 0x00, 0x00, 0x00, 0x48, 0x00, 0x00, 0x00, 0x4f, 0x7f, 0x39, 0x14,
  0x10, 0x4c, 0x93, 0x82, 0xcb, 0x0e, 0x61, 0x5f, 0x20, 0x7f, 0xec, 0x70,
  0x59, 0x4b, 0x4a, 0x69, 0x29, 0x49, 0x22, 0x6e, 0xda, 0x7f, 0x37, 0x7b,
  0x2e, 0x70, 0x45, 0x32, 0x7f, 0x62, 0xe5, 0x73, 0x11, 0x95, 0x98, 0x06,
  0x3b, 0xea, 0x48, 0x48, 0x7f, 0x02, 0xc4, 0x81, 0x49, 0xd9, 0xff, 0x14,
  0x7e, 0x6a, 0x6e, 0x3d, 0x34, 0x7c, 0x7f, 0xfc, 0x02, 0x2e, 0x97, 0xa1,
  0x0a, 0x7f, 0x1f, 0x50, 0x72, 0x31, 0x6c, 0x6b, 0x52, 0xea, 0xff, 0xff,
  0x04, 0x00, 0x00, 0x00, 0x20, 0x00, 0x00, 0x00, 0x17, 0xfd, 0xff, 0xff,
  0x1d, 0xff, 0xff, 0xff, 0xb9, 0x00, 0x00, 0x00, 0xb8, 0xff, 0xff, 0xff,
  0x5d, 0xf5, 0xff, 0xff, 0xc2, 0xfe, 0xff, 0xff, 0x3a, 0xff, 0xff, 0xff,
  0x2d, 0x00, 0x00, 0x00, 0x7e, 0xea, 0xff, 0xff, 0x04, 0x00, 0x00, 0x00,
  0x80, 0x04, 0x00, 0x00, 0x23, 0x10, 0xf9, 0x08, 0x62, 0x3c, 0xd9, 0x41,
  0xdd, 0x1b, 0xf0, 0x35, 0x3e, 0x1d, 0xfa, 0xfd, 0xab, 0xf7, 0x31, 0x1f,
  0xda, 0xf6, 0x15, 0xe4, 0x26, 0xff, 0x3b, 0x48, 0x13, 0xcd, 0x00, 0x40,
  0x03, 0x3a, 0xdc, 0x02, 0xe2, 0xe2, 0x3a, 0x33, 0x0b, 0x0a, 0x15, 0x09,
  0xec, 0xf4, 0x41, 0x23, 0x57, 0x15, 0x25, 0x15, 0xa8, 0xfd, 0x05, 0xe1,
  0x0f, 0x17, 0x3a, 0x38, 0x1c, 0xfa, 0x2b, 0xc7, 0x33, 0x43, 0x22, 0x47,
  0x7f, 0x08, 0xf0, 0xff, 0x18, 0x0f, 0x41, 0x2f, 0x74, 0x3b, 0x10, 0x04,
  0x11, 0x13, 0x42, 0x32, 0x7f, 0x55, 0x3b, 0x23, 0x31, 0x2e, 0x53, 0x0a,
  0x36, 0x30, 0x07, 0x40, 0x49, 0xca, 0x1a, 0xfb, 0x81, 0x99, 0x18, 0xc9,
  0x6b, 0x0f, 0x17, 0x1a, 0xeb, 0x22, 0x0e, 0xfc, 0x65, 0x0a, 0x07, 0x3d,
  0xd7, 0x90, 0x4b, 0x01, 0xbe, 0xaa, 0xb8, 0x97, 0x07, 0x0b, 0xa8, 0xa3,
  0x01, 0x9a, 0xbd, 0xb6, 0xcd, 0x2e, 0xd6, 0xdf, 0xfa, 0x99, 0xb1, 0xa2,
  0x0c, 0x08, 0xb8, 0xb7, 0xf8, 0x2f, 0xe4, 0xfd, 0xef, 0xf1, 0x13, 0xcb,
  0xb1, 0x47, 0x2a, 0x03, 0x17, 0x08, 0x02, 0x07, 0xe4, 0x22, 0x01, 0xe3,
  0x3a, 0x28, 0x18, 0x18, 0xe3, 0x1d, 0x2e, 0xe3, 0x19, 0xd0, 0x1a, 0x3d,
  0xe1, 0x02, 0x27, 0x0c, 0xfe, 0xa1, 0x26, 0x1d, 0xdc, 0xf2, 0x14, 0x52,
  0xf8, 0x19, 0x46, 0x0f, 0xdc, 0x2d, 0x0c, 0x39, 0xec, 0xd7, 0x73, 0x21,
  0x52, 0xbc, 0xed, 0xc5, 0x81, 0xa4, 0x39, 0xee, 0x4d, 0xb1, 0xc0, 0xf2,
  0xb1, 0xad, 0xea, 0xb4, 0x69, 0xdd, 0x02, 0xfb, 0xdb, 0xcb, 0x35, 0xf4,
  0x4d, 0xe3, 0xed, 0xf3, 0xf3, 0x0f, 0x28, 0xfb, 0x28, 0xf7, 0xb9, 0xc6,
  0x47, 0x2d, 0xf0, 0xe1, 0xea, 0xf9, 0xd7, 0xd6, 0x3a, 0x3c, 0xdb, 0x18,
  0xcc, 0xf9, 0xff, 0xe6, 0x53, 0x3c, 0xc1, 0x15, 0x29, 0x09, 0x0d, 0x1b,
  0x14, 0x1e, 0x02, 0x24, 0x7f, 0x11, 0x0e, 0x23, 0x39, 0x2d, 0x4b, 0xfe,
  0x6d, 0x06, 0x0f, 0x0b, 0x08, 0x02, 0x3b, 0xf6, 0x3d, 0x18, 0xef, 0xff,
  0xfc, 0xd6, 0x1f, 0x1c, 0xf7, 0x99, 0xf2, 0xa4, 0x0d, 0x10, 0x11, 0x9c,
  0xae, 0xdb, 0xf7, 0xcf, 0xfe, 0x52, 0xbf, 0x32, 0xab, 0x4c, 0x21, 0xfd,
  0x07, 0xf3, 0x34, 0x4e, 0x9a, 0xd3, 0xe4, 0xc6, 0xda, 0x29, 0xcb, 0xf4,
  0x97, 0xf8, 0x24, 0x0e, 0x2b, 0xfd, 0x5a, 0x2e, 0xfe, 0x49, 0x12, 0xfc,
  0x81, 0xb5, 0x64, 0x16, 0xdb, 0x39, 0x10, 0x0b, 0xf3, 0x0e, 0xef, 0x51,
  0x23, 0x29, 0x13, 0xfb, 0xe0, 0xe9, 0x59, 0x27, 0x29, 0x09, 0xf4, 0x05,
  0x09, 0x39, 0x1f, 0xb5, 0xbc, 0x1f, 0xe5, 0xe2, 0xc8, 0xf2, 0x03, 0x09,
  0xda, 0x57, 0x41, 0x00, 0xd4, 0xd6, 0x29, 0x62, 0xf9, 0x4c, 0xe4, 0x17,
  0xa9, 0x98, 0x34, 0x1b, 0xdf, 0x37, 0x2c, 0xed, 0xc9, 0xd3, 0xbe, 0x59,
  0xf0, 0x33, 0x20, 0x41, 0xd0, 0x8f, 0x67, 0x34, 0xc2, 0xe9, 0xc1, 0xd2,
  0xae, 0xce, 0x27, 0x81, 0xe7, 0x62, 0xfb, 0x04, 0xba, 0xf4, 0x0a, 0x32,
  0x19, 0x11, 0x26, 0x0b, 0xb6, 0xf7, 0x5f, 0x0f, 0x9d, 0xa6, 0xa2, 0xce,
  0xfc, 0xea, 0x0b, 0xca, 0x3e, 0xa7, 0xc8, 0xec, 0xe5, 0xe1, 0xfa, 0xec,
  0x25, 0xc7, 0xd6, 0xf2, 0xca, 0x08, 0xde, 0xcd, 0x27, 0xc5, 0xbd, 0xdc,
  0xd4, 0xcf, 0xd9, 0xda, 0x81, 0xec, 0xcb, 0xf2, 0x1f, 0xed, 0x9b, 0x0a,
  0xcc, 0x25, 0xfe, 0xd8, 0x2e, 0x12, 0xf4, 0xff, 0xc9, 0xef, 0xf8, 0xea,
  0x54, 0x2a, 0xe1, 0xf1, 0xe2, 0xf9, 0xef, 0xfd, 0x2b, 0x15, 0xf2, 0x23,
  0x07, 0x21, 0x22, 0x42, 0xfd, 0xfd, 0xfc, 0x0c, 0x1d, 0x30, 0x06, 0x3e,
  0x13, 0x1d, 0x42, 0x31, 0xe8, 0xde, 0x02, 0x11, 0x29, 0xf1, 0x02, 0x26,
  0x4e, 0x1f, 0x0d, 0xcf, 0xdc, 0x13, 0xda, 0x31, 0x23, 0x12, 0xf7, 0xec,
  0x4c, 0x37, 0xdc, 0x20, 0x25, 0x2c, 0xd0, 0xf8, 0x58, 0x01, 0x1e, 0xd8,
  0x64, 0x20, 0xc7, 0xeb, 0x1f, 0x12, 0xfa, 0xee, 0x65, 0xdd, 0x37, 0xf7,
  0x42, 0x02, 0xe9, 0x08, 0x60, 0xe1, 0x05, 0x18, 0x02, 0x02, 0x2c, 0xf4,
  0x2c, 0xc1, 0x0e, 0x22, 0x04, 0x09, 0x2e, 0x07, 0x7f, 0xba, 0x09, 0xed,
  0x15, 0xe5, 0xfc, 0x28, 0x0f, 0xec, 0x27, 0xf4, 0x04, 0x0d, 0xd8, 0x22,
  0x72, 0x10, 0x23, 0x1a, 0xe4, 0x09, 0x19, 0x13, 0x5d, 0x2e, 0x01, 0x12,
  0x1e, 0xeb, 0x3f, 0x12, 0x16, 0x25, 0xd7, 0x0e, 0x03, 0x17, 0x28, 0x1f,
  0x04, 0xca, 0xcc, 0xc5, 0x03, 0xfd, 0xec, 0x06, 0x48, 0xfb, 0xfe, 0x08,
  0x01, 0xfe, 0xda, 0xc7, 0x30, 0xed, 0x19, 0xde, 0x29, 0x42, 0xe6, 0xca,
  0xd9, 0x0d, 0x16, 0xfe, 0x36, 0x7f, 0xd8, 0xe3, 0xef, 0x08, 0xe6, 0x00,
  0x4f, 0x6c, 0xcc, 0x2c, 0xac, 0x2c, 0xc6, 0x2a, 0x45, 0xf5, 0x13, 0x13,
  0x81, 0xa3, 0xc3, 0xf1, 0xf2, 0x1e, 0xa8, 0xc4, 0x46, 0xbe, 0xc8, 0xef,
  0xf8, 0xfd, 0x04, 0xe0, 0x4b, 0x2e, 0x66, 0x1a, 0x3d, 0x75, 0xf4, 0x1b,
  0x07, 0x2a, 0x29, 0xde, 0x32, 0x67, 0x21, 0xcd, 0x1a, 0xbe, 0xca, 0xcc,
  0x20, 0x50, 0xfd, 0xe7, 0x48, 0x11, 0xf6, 0x45, 0xed, 0x12, 0xd9, 0x41,
  0x0b, 0x38, 0x53, 0x58, 0x64, 0x04, 0x03, 0x33, 0x12, 0x13, 0x49, 0x56,
  0x13, 0x4e, 0x48, 0x1b, 0x97, 0x13, 0x3f, 0xdb, 0xf6, 0xe5, 0x2b, 0xfc,
  0x81, 0x01, 0x0c, 0xee, 0xe4, 0x2e, 0x16, 0xfc, 0xc2, 0xd7, 0xb9, 0xc8,
  0xb2, 0x02, 0x06, 0x01, 0xd9, 0x20, 0x07, 0x3e, 0xbe, 0xbd, 0xfe, 0x40,
  0xda, 0x01, 0xf9, 0x11, 0x3f, 0x28, 0x18, 0x10, 0xee, 0xda, 0xf6, 0xcc,
  0xf7, 0x42, 0xf2, 0x11, 0x0f, 0x3b, 0x26, 0x1d, 0x0f, 0x3b, 0xf4, 0x2f,
  0x0c, 0x0e, 0xf4, 0x24, 0x29, 0x61, 0x11, 0x06, 0x1e, 0xf7, 0x45, 0x24,
  0x3f, 0x46, 0x3c, 0x38, 0x20, 0xfd, 0x1a, 0x38, 0x3c, 0x68, 0x40, 0x58,
  0x05, 0x14, 0xcb, 0xbb, 0x79, 0x7f, 0x61, 0x42, 0x1a, 0x01, 0xd7, 0xf6,
  0xe8, 0x25, 0xdb, 0xcc, 0x5e, 0xb6, 0xf7, 0xf8, 0xef, 0xca, 0xdd, 0xcf,
  0x54, 0x17, 0x32, 0x45, 0x59, 0x40, 0x02, 0xe6, 0x0c, 0xf9, 0x23, 0xaa,
  0x53, 0x65, 0x15, 0x01, 0x0d, 0xcb, 0x97, 0x18, 0x7c, 0x1a, 0xe2, 0x1e,
  0x45, 0x10, 0x03, 0x32, 0x3e, 0x34, 0xdc, 0xde, 0x34, 0xef, 0x40, 0x2e,
  0x3c, 0x5e, 0x47, 0xfa, 0x0a, 0x0f, 0x20, 0xd5, 0xea, 0xca, 0xf0, 0xde,
  0x0e, 0xb0, 0xd2, 0xdd, 0xdd, 0x05, 0x0d, 0xba, 0xd5, 0xc3, 0xef, 0xb6,
  0x29, 0x24, 0x90, 0x00, 0xf7, 0xd3, 0xae, 0xa1, 0xbe, 0xef, 0xb1, 0xa5,
  0x81, 0xf5, 0xfa, 0xd0, 0x1c, 0x59, 0xe9, 0x13, 0xcb, 0x04, 0xf8, 0x38,
  0x1e, 0x52, 0xfc, 0x21, 0xb7, 0x1e, 0xd7, 0xe3, 0x1d, 0x25, 0x9b, 0x1f,
  0x17, 0x46, 0x0d, 0x2a, 0x0b, 0x24, 0x0e, 0x47, 0x2a, 0x30, 0x3c, 0x1f,
  0xe2, 0x0b, 0x2a, 0x1d, 0xe3, 0xd3, 0x1d, 0xc4, 0xa8, 0xec, 0xde, 0xf7,
  0xdd, 0x14, 0x35, 0x1c, 0xb7, 0xc7, 0xe7, 0x23, 0x9c, 0x0d, 0x43, 0x40,
  0x0a, 0x1e, 0x54, 0xfa, 0xf6, 0x82, 0xc7, 0xd9, 0xa1, 0xe5, 0x81, 0xa8,
  0xdf, 0x05, 0xfc, 0x1b, 0x0a, 0xda, 0xcc, 0x6b, 0x95, 0x21, 0x67, 0x26,
  0xde, 0x1f, 0x39, 0x39, 0xd3, 0xdb, 0xb5, 0xaa, 0xe1, 0xc8, 0x88, 0xf2,
  0xb0, 0x27, 0x18, 0x4e, 0xd2, 0x0f, 0x1a, 0x52, 0xb5, 0x3d, 0x10, 0x0e,
  0x0a, 0x53, 0x61, 0x00, 0xda, 0xf4, 0xaa, 0xa5, 0x21, 0x71, 0xb5, 0xf6,
  0x22, 0xcf, 0xaf, 0xa2, 0x12, 0x0f, 0xb9, 0xd7, 0xed, 0xd1, 0x81, 0x84,
  0xa2, 0x9b, 0xc1, 0xab, 0x12, 0x3a, 0x14, 0x47, 0x3f, 0x33, 0x2c, 0xec,
  0x02, 0x11, 0xd8, 0x1b, 0x56, 0x0d, 0xdf, 0x38, 0xc5, 0xcc, 0xd1, 0x00,
  0x52, 0x53, 0xf9, 0xe2, 0x31, 0x19, 0x4d, 0xf8, 0xeb, 0xfd, 0x54, 0x26,
  0x60, 0xf7, 0x15, 0x3b, 0x1f, 0x27, 0x41, 0x0e, 0x55, 0x20, 0x4a, 0x44,
  0x39, 0x45, 0x40, 0xf2, 0x19, 0x43, 0x0c, 0xff, 0x15, 0x0a, 0xd2, 0x24,
  0xf2, 0x04, 0x2d, 0xf6, 0xd4, 0x1b, 0xfd, 0x14, 0xfd, 0x21, 0x0f, 0x11,
  0x0f, 0x00, 0xcb, 0xdb, 0x1d, 0xe6, 0x09, 0x41, 0xe7, 0xf4, 0x2c, 0x07,
  0x35, 0x22, 0x2d, 0x1c, 0x1d, 0x16, 0x06, 0x1a, 0xe9, 0x18, 0x32, 0x26,
  0x34, 0x2f, 0xce, 0x03, 0xf6, 0x9d, 0xbf, 0xb6, 0xa9, 0x81, 0xbe, 0x9e,
  0x38, 0xe6, 0x11, 0xfa, 0x8a, 0xa8, 0xee, 0xf7, 0x78, 0xef, 0x1a, 0x2e,
  0xf4, 0xb7, 0x1b, 0x17, 0x0a, 0xef, 0xff, 0xff, 0x04, 0x00, 0x00, 0x00,
  0x40, 0x00, 0x00, 0x00, 0xb9, 0xf5, 0xff, 0xff, 0x68, 0x01, 0x00, 0x00,
  0xb6, 0xfc, 0xff, 0xff, 0x13, 0xf9, 0xff, 0xff, 0x4a, 0xf4, 0xff, 0xff,
  0x6b, 0x00, 0x00, 0x00, 0x9e, 0x0a, 0x00, 0x00, 0xfe, 0xf9, 0xff, 0xff,
  0x06, 0xfc, 0xff, 0xff, 0xfd, 0xfa, 0xff, 0xff, 0xbf, 0xf8, 0xff, 0xff,
  0x75, 0xed, 0xff, 0xff, 0x5d, 0x0b, 0x00, 0x00, 0x78, 0xf9, 0xff, 0xff,
  0x42, 0xfc, 0xff, 0xff, 0xe5, 0xfd, 0xff, 0xff, 0x56, 0xef, 0xff, 0xff,
  0x04, 0x00, 0x00, 0x00, 0xa0, 0x0f, 0x00, 0x00, 0xeb, 0x0d, 0xc5, 0x08,
  0xe9, 0xed, 0x0a, 0xea, 0xe9, 0xfc, 0x29, 0x1d, 0xf6, 0xff, 0xf5, 0x18,
  0xf2, 0xbf, 0xfd, 0xf5, 0xee, 0xe2, 0xec, 0x04, 0xc8, 0xeb, 0xde, 0xd7,
  0x19, 0x13, 0xe9, 0xfb, 0x1e, 0xe3, 0x12, 0xef, 0xf9, 0x03, 0xe9, 0xf6,
  0x03, 0x1f, 0x23, 0xf3, 0x11, 0xf3, 0x10, 0xfa, 0xf2, 0xf5, 0xdf, 0xd3,
  0x03, 0xf8, 0x12, 0xeb, 0xc9, 0x22, 0x08, 0x20, 0xf6, 0xef, 0xf4, 0x13,
  0xf2, 0x9c, 0xd1, 0x21, 0xf0, 0xdc, 0xe8, 0x10, 0xe9, 0x1c, 0x08, 0x21,
  0xe3, 0xfa, 0x0a, 0x0e, 0x1b, 0xaf, 0xd3, 0xef, 0x0b, 0xf6, 0x1b, 0xde,
  0x17, 0x17, 0xf9, 0xfa, 0x08, 0x22, 0xfa, 0x19, 0xff, 0x0d, 0x00, 0x0e,
  0xf5, 0xef, 0x26, 0xe5, 0xf5, 0xf2, 0x2f, 0xe8, 0x02, 0x1b, 0xf1, 0x25,
  0xe7, 0x10, 0x28, 0xf0, 0xf1, 0x29, 0x17, 0xee, 0xf1, 0xf4, 0xce, 0x02,
  0x1c, 0xec, 0x17, 0x15, 0x33, 0xec, 0xeb, 0xd2, 0xe4, 0xf8, 0x03, 0x1a,
  0x0d, 0xf1, 0xf1, 0x07, 0x0b, 0xfa, 0x2f, 0x0b, 0x32, 0xd1, 0xf2, 0xdc,
  0xf1, 0xce, 0xc9, 0xfb, 0xf8, 0x2f, 0xff, 0xf6, 0xb7, 0x3a, 0x19, 0x0c,
  0x21, 0xae, 0xd3, 0xe4, 0xf5, 0x1b, 0x06, 0x1e, 0xcc, 0x11, 0x0e, 0xf2,
  0xeb, 0xf1, 0xfa, 0x0b, 0x26, 0xb9, 0x0a, 0x0f, 0x0b, 0x1d, 0x0c, 0xf5,
  0xdb, 0x17, 0xf4, 0x09, 0x26, 0xf7, 0xd0, 0x02, 0xce, 0xf5, 0x0b, 0xcd,
  0xf7, 0x03, 0xcb, 0xe2, 0xfb, 0xee, 0x03, 0xe5, 0xfd, 0x0e, 0xec, 0xcf,
  0xdc, 0xfc, 0xd4, 0xb3, 0xc8, 0xe0, 0xd5, 0xfa, 0x27, 0xf1, 0x03, 0xd7,
  0xef, 0x19, 0xd1, 0xe9, 0x16, 0xbe, 0xea, 0xdf, 0x1b, 0x03, 0xd8, 0xf9,
  0x2a, 0x0a, 0x26, 0x14, 0x1b, 0x32, 0xcd, 0x2e, 0xf0, 0xaf, 0xd2, 0xc0,
  0x27, 0x48, 0xce, 0x31, 0x01, 0x07, 0x00, 0x19, 0xdd, 0x27, 0xac, 0x2a,
  0x17, 0xcb, 0x25, 0xcd, 0x29, 0x0b, 0xba, 0xfd, 0xdd, 0xea, 0x24, 0xf9,
  0xdf, 0x05, 0xde, 0xf4, 0x02, 0x81, 0x10, 0x1c, 0xe4, 0x0f, 0xd8, 0xdf,
  0xc3, 0xed, 0x26, 0xda, 0x06, 0xcd, 0xf0, 0xf9, 0xe1, 0xea, 0xdb, 0x15,
  0x0b, 0x0a, 0x1c, 0x06, 0xd6, 0xfa, 0xf1, 0xf5, 0xfc, 0x18, 0x04, 0x16,
  0x2b, 0x13, 0x33, 0xf3, 0xef, 0x29, 0x11, 0x01, 0x41, 0xf6, 0xdb, 0xfa,
  0x21, 0x2c, 0xb9, 0x32, 0x02, 0xdd, 0xfc, 0xc6, 0x17, 0x17, 0xd1, 0x2b,
  0x19, 0x40, 0x0f, 0xfb, 0xcf, 0xfe, 0xd7, 0xe9, 0x11, 0xf3, 0x05, 0xf5,
  0x22, 0xf1, 0xa4, 0xf6, 0xf0, 0x15, 0xf3, 0x16, 0xa3, 0x20, 0x16, 0x02,
  0x24, 0x23, 0x21, 0x20, 0x0f, 0x0c, 0xd9, 0x30, 0xf5, 0x37, 0x11, 0x1f,
  0xe7, 0xbf, 0x11, 0xfc, 0xf3, 0xea, 0x10, 0x21, 0x21, 0x21, 0x1c, 0x31,
  0x26, 0xf0, 0xe6, 0xf9, 0x0f, 0xae, 0x05, 0xf2, 0x0c, 0x13, 0xdc, 0x06,
  0x14, 0x17, 0x1a, 0x01, 0x0d, 0xd0, 0xbc, 0x21, 0x4a, 0xe9, 0xe7, 0xec,
  0xe7, 0x17, 0x07, 0xec, 0x10, 0xed, 0x09, 0xf1, 0x0e, 0x17, 0xe8, 0x1a,
  0xec, 0xe9, 0xfd, 0xf4, 0xf6, 0xd8, 0x03, 0x07, 0xfc, 0xdb, 0xf8, 0xf1,
  0xdd, 0xf9, 0x10, 0x27, 0x06, 0x0a, 0xf5, 0x2d, 0x1f, 0xe6, 0xfb, 0x0b,
  0x28, 0x5f, 0x21, 0xe0, 0xe3, 0xf9, 0x0f, 0x12, 0xf2, 0x3a, 0xca, 0x04,
  0x08, 0xd3, 0x1f, 0xc2, 0x0b, 0x1b, 0x16, 0xd2, 0xce, 0x0f, 0x13, 0x0b,
  0xee, 0x26, 0xe6, 0xee, 0xe6, 0xea, 0x10, 0xe7, 0x1d, 0x31, 0x1b, 0xf9,
  0xe1, 0xe9, 0xf6, 0x16, 0x23, 0x19, 0xdb, 0xf9, 0xef, 0xff, 0x10, 0xf2,
  0xed, 0xe3, 0x1d, 0x18, 0x11, 0x19, 0x23, 0x17, 0x23, 0x1a, 0x26, 0x19,
  0xe0, 0xf1, 0xe9, 0x0c, 0xd9, 0xd3, 0xdc, 0xf7, 0xfe, 0xf5, 0xd9, 0x0d,
  0xcf, 0xd6, 0xd1, 0xee, 0x0b, 0xfd, 0xf3, 0x14, 0xea, 0x11, 0x1d, 0xf5,
  0xa2, 0x10, 0x24, 0xee, 0x2f, 0x42, 0x02, 0x27, 0xfe, 0xaa, 0xfe, 0xef,
  0x03, 0x2a, 0x18, 0x05, 0xcb, 0x23, 0x2f, 0xf0, 0x7f, 0x39, 0xe2, 0x0b,
  0xdf, 0xd9, 0xeb, 0xbd, 0xf9, 0x06, 0x12, 0xde, 0xc4, 0xed, 0xef, 0xe4,
  0x10, 0x09, 0xb2, 0xd6, 0xcb, 0x05, 0xe8, 0x14, 0x11, 0xe4, 0x13, 0xf4,
  0xfb, 0x12, 0xf5, 0xcc, 0xf3, 0xef, 0x16, 0xf5, 0xf4, 0x08, 0xef, 0xf8,
  0xfe, 0x2b, 0x2b, 0xf2, 0x1b, 0xcf, 0xc9, 0xd9, 0xef, 0xde, 0x1f, 0xd8,
  0x1d, 0x0f, 0x0b, 0xbc, 0x00, 0x44, 0x3d, 0xfe, 0xd7, 0x19, 0xbb, 0x0a,
  0x3f, 0x0f, 0xce, 0x10, 0x09, 0xd9, 0x0b, 0xac, 0x07, 0xfb, 0x14, 0x01,
  0xca, 0xf7, 0x2f, 0xe2, 0x10, 0x0d, 0xf1, 0xf3, 0x0a, 0xed, 0xe7, 0xbf,
  0x0c, 0xfa, 0xff, 0xe7, 0xf7, 0xce, 0x04, 0xcc, 0x01, 0x2c, 0xca, 0xeb,
  0x10, 0x33, 0x00, 0xf4, 0xdc, 0xd7, 0x1e, 0x13, 0x26, 0xfc, 0xe3, 0xe2,
  0x25, 0x1a, 0x14, 0xe2, 0xe7, 0xe8, 0x05, 0x14, 0xe1, 0x1b, 0xfa, 0xef,
  0xd0, 0xd8, 0xe9, 0xe7, 0x24, 0x0b, 0xf8, 0xe6, 0x14, 0x22, 0xf9, 0x9e,
  0x2b, 0x0d, 0x1b, 0x0f, 0xe3, 0xd5, 0xe4, 0xf2, 0x21, 0x33, 0xb8, 0x20,
  0x09, 0x13, 0x08, 0xf0, 0xe7, 0x17, 0xeb, 0x07, 0xe5, 0x22, 0x33, 0xcf,
  0x0f, 0x07, 0xfc, 0xe8, 0xea, 0xf5, 0xbf, 0x20, 0x26, 0xe2, 0x48, 0xd6,
  0xd0, 0x13, 0x10, 0x25, 0x41, 0xe2, 0xf6, 0xca, 0x00, 0x09, 0x1e, 0x44,
  0x14, 0x24, 0x1a, 0x04, 0x09, 0xff, 0x1e, 0x17, 0x0e, 0xef, 0x25, 0x0f,
  0x11, 0xf2, 0x08, 0x01, 0x18, 0x12, 0x09, 0x18, 0xd3, 0x07, 0xeb, 0xd6,
  0xff, 0xe6, 0x1c, 0xe8, 0x2b, 0x1d, 0x12, 0xbe, 0xf1, 0x2c, 0x37, 0xed,
  0xe4, 0xd4, 0xf0, 0xf3, 0x14, 0x12, 0xe6, 0x24, 0x04, 0xff, 0xf5, 0x00,
  0xe5, 0xb6, 0x1d, 0xfa, 0xd9, 0x41, 0x32, 0xfc, 0xb7, 0x2c, 0x15, 0xe3,
  0x08, 0x1b, 0x27, 0xfe, 0xd4, 0x29, 0x0a, 0x00, 0x26, 0x17, 0x19, 0x2f,
  0xc8, 0x0b, 0x57, 0xfa, 0xd3, 0xf6, 0x32, 0xfb, 0x2a, 0xf1, 0xfd, 0xfb,
  0xdd, 0xe5, 0x22, 0xd2, 0x07, 0xd5, 0xe1, 0xeb, 0x30, 0x47, 0x16, 0x01,
  0x14, 0xf1, 0x13, 0xf5, 0x0b, 0xef, 0x24, 0xef, 0xea, 0x26, 0x20, 0xf0,
  0x22, 0x1a, 0x22, 0xfa, 0x1c, 0xd9, 0xd4, 0x10, 0xe0, 0x03, 0xfc, 0xfe,
  0xe9, 0xf8, 0xfd, 0x27, 0x04, 0x09, 0xde, 0xe5, 0xf5, 0xce, 0x02, 0x22,
  0xec, 0x17, 0xe5, 0x0b, 0xf4, 0xb5, 0x10, 0x00, 0xe3, 0xb7, 0xfe, 0xff,
  0xca, 0x05, 0xbe, 0xf2, 0x81, 0x11, 0x0c, 0x04, 0xc9, 0xb5, 0xd6, 0x30,
  0xd9, 0x28, 0x0f, 0x1f, 0xdd, 0x0e, 0xf6, 0x27, 0x25, 0x0e, 0xec, 0xe2,
  0xea, 0xca, 0x21, 0xf5, 0xeb, 0x28, 0x09, 0x02, 0x08, 0x1e, 0x0a, 0xf0,
  0xfb, 0xf8, 0xe6, 0xd2, 0x3c, 0xd0, 0x3a, 0x16, 0xf9, 0x24, 0xf4, 0xf4,
  0xea, 0xff, 0x20, 0xe6, 0xfd, 0xff, 0xf1, 0x19, 0xe8, 0xf8, 0x43, 0x2c,
  0x09, 0xf6, 0xfe, 0xed, 0xca, 0xc3, 0xaf, 0xca, 0xe3, 0xe8, 0x00, 0x24,
  0xa4, 0x22, 0x0c, 0x07, 0xf5, 0xc1, 0xcb, 0xd5, 0xf3, 0x12, 0xdb, 0x09,
  0xcd, 0x04, 0x27, 0xe0, 0xb0, 0x35, 0xf2, 0xdf, 0xea, 0x49, 0xed, 0x45,
  0x17, 0xdc, 0x51, 0x1d, 0x5c, 0x2f, 0x0d, 0x11, 0x17, 0x1c, 0x4a, 0xd5,
  0xf1, 0x44, 0x1d, 0x18, 0xd9, 0xd8, 0x29, 0x21, 0x1c, 0xfb, 0xe9, 0xc1,
  0x46, 0xfe, 0x2b, 0xd5, 0xe6, 0xfa, 0x0d, 0x19, 0xe4, 0xd3, 0x21, 0xf5,
  0x0c, 0xe7, 0xe6, 0x14, 0x23, 0xff, 0x1c, 0xef, 0xdf, 0xc6, 0x16, 0x0f,
  0x34, 0xed, 0xfc, 0x05, 0x09, 0xd1, 0xde, 0xe2, 0x00, 0x13, 0x0f, 0xeb,
  0x23, 0xd0, 0x1c, 0xf6, 0x23, 0xf8, 0x2b, 0xde, 0xf6, 0xd8, 0xea, 0x13,
  0x48, 0x1a, 0xe0, 0xda, 0xea, 0xc7, 0x08, 0x42, 0x32, 0x10, 0x03, 0xdf,
  0xea, 0x19, 0xe8, 0xfd, 0x2f, 0x04, 0xff, 0xe8, 0x04, 0xd0, 0xe7, 0x16,
  0x4c, 0x0a, 0x19, 0xf2, 0xe1, 0xbb, 0x08, 0xe0, 0x41, 0x08, 0xc2, 0xf0,
  0x32, 0x0d, 0x0c, 0xee, 0x34, 0x14, 0xfd, 0x16, 0xe7, 0xde, 0x0e, 0x26,
  0x32, 0xdd, 0xea, 0xe4, 0x12, 0xe6, 0x1c, 0xfb, 0x14, 0x13, 0x0b, 0x02,
  0xf7, 0xf6, 0xf0, 0xe0, 0x4c, 0xd2, 0xe3, 0xff, 0x21, 0x37, 0x1f, 0x29,
  0xf5, 0xf1, 0x51, 0x3b, 0x15, 0x13, 0x24, 0xdf, 0x23, 0x9a, 0x1d, 0xfe,
  0x0d, 0xfd, 0x32, 0x11, 0x01, 0x16, 0xff, 0x0c, 0xfa, 0x04, 0xf2, 0xe3,
  0xfd, 0xfb, 0xd3, 0x0e, 0x0c, 0xfe, 0x0f, 0xd0, 0x0e, 0x3f, 0xd8, 0x08,
  0xcd, 0xf1, 0xfc, 0x0a, 0x07, 0x25, 0xf8, 0xf8, 0x0c, 0xe5, 0x12, 0x11,
  0x07, 0x0a, 0xe5, 0x0f, 0x29, 0xd7, 0x19, 0xf7, 0x18, 0xdb, 0x00, 0x0f,
  0x0c, 0x1e, 0xc3, 0x05, 0xd2, 0xf0, 0x2a, 0x0e, 0x0a, 0x2d, 0xe4, 0x2a,
  0xe4, 0xb5, 0x38, 0x34, 0x17, 0x2c, 0x22, 0x71, 0xb7, 0xec, 0x64, 0x06,
  0x3a, 0x0f, 0x04, 0x10, 0x1d, 0xf1, 0x6c, 0x28, 0xf3, 0xf4, 0x23, 0x17,
  0xdd, 0x0a, 0xeb, 0xec, 0x3c, 0xf7, 0x05, 0x00, 0x0a, 0x11, 0xeb, 0xef,
  0x17, 0x2d, 0x01, 0x0f, 0xd5, 0xb9, 0xfd, 0x25, 0x40, 0x04, 0xff, 0x23,
  0x14, 0x01, 0x0d, 0x13, 0x27, 0x1e, 0xfb, 0xfc, 0xf5, 0xbf, 0x03, 0x04,
  0x17, 0x0f, 0x16, 0xf5, 0xfe, 0xd4, 0x30, 0xfb, 0x09, 0xdb, 0xfd, 0x1a,
  0xd2, 0xf2, 0xdd, 0xeb, 0xce, 0x22, 0x04, 0x18, 0xb9, 0xd0, 0x08, 0xeb,
  0x34, 0xad, 0xdc, 0xd4, 0xd6, 0xfa, 0xc1, 0x0a, 0x8c, 0x36, 0x12, 0x2b,
  0xd4, 0xca, 0x22, 0xe9, 0xd3, 0x4d, 0x2a, 0x35, 0x04, 0x0a, 0xf5, 0x10,
  0x35, 0xf7, 0xf8, 0x16, 0xf1, 0xbe, 0x0a, 0x11, 0xd2, 0x34, 0x06, 0x4f,
  0xfd, 0xdd, 0x15, 0xf9, 0x45, 0x04, 0xbe, 0xf9, 0x04, 0xcd, 0x39, 0xf3,
  0x1c, 0xf8, 0xf8, 0x4c, 0xe3, 0xe6, 0x0b, 0xe1, 0x05, 0xf3, 0xe9, 0xfb,
  0x05, 0xe7, 0x15, 0x13, 0xfe, 0xcf, 0x32, 0xfe, 0xdf, 0x10, 0xce, 0xf5,
  0x0d, 0xed, 0x0c, 0x16, 0xa6, 0x29, 0xf8, 0x0d, 0xe6, 0x94, 0xff, 0xbd,
  0x2d, 0x38, 0xc3, 0x06, 0xbf, 0xe6, 0xf9, 0xf1, 0xdc, 0xdc, 0xe9, 0xfd,
  0xdc, 0x08, 0xfd, 0x0a, 0x1a, 0x1a, 0x0e, 0xdd, 0x18, 0xb7, 0xf1, 0xf3,
  0x08, 0xf0, 0x2b, 0xfb, 0xeb, 0x14, 0xfd, 0x39, 0xf6, 0x20, 0x22, 0xda,
  0x2f, 0xd6, 0xac, 0xe5, 0x38, 0xcf, 0xe1, 0x06, 0x2c, 0xe6, 0x04, 0x37,
  0x4a, 0x01, 0x27, 0xec, 0x1f, 0xfd, 0xd8, 0xfb, 0x39, 0xfe, 0xee, 0x22,
  0x2c, 0x17, 0x21, 0x3d, 0xff, 0xea, 0x21, 0x1c, 0x27, 0x18, 0xe6, 0xe8,
  0xfe, 0xc5, 0xdd, 0xee, 0x17, 0x30, 0x26, 0x10, 0xe1, 0x1a, 0x05, 0x08,
  0x39, 0x1c, 0xf9, 0xde, 0xa7, 0x81, 0xfe, 0x12, 0xf8, 0xf5, 0x0b, 0x2e,
  0xd0, 0xca, 0x23, 0x1a, 0xc5, 0x03, 0x17, 0xd7, 0x04, 0xc1, 0x45, 0xf7,
  0xdf, 0x2d, 0xc3, 0x19, 0xc5, 0xd2, 0x09, 0x08, 0xe1, 0x21, 0xe8, 0xee,
  0xc3, 0xf5, 0x3e, 0x08, 0x19, 0x15, 0xd0, 0x06, 0xf2, 0xea, 0xee, 0xec,
  0x35, 0xfe, 0xff, 0xe6, 0xe8, 0xef, 0x0c, 0x15, 0xd2, 0xed, 0xff, 0x43,
  0xed, 0xc1, 0xce, 0xf8, 0xff, 0x0e, 0x01, 0x33, 0xd5, 0x08, 0x0b, 0x09,
  0x0f, 0xda, 0xf0, 0xe0, 0xd6, 0x16, 0x87, 0xef, 0xd6, 0xe8, 0xe5, 0x20,
  0x88, 0x19, 0x1c, 0xcd, 0xf7, 0x1b, 0x26, 0xf6, 0xf3, 0xcb, 0x1f, 0x2f,
  0x19, 0x41, 0x04, 0x01, 0x03, 0x16, 0x23, 0xe4, 0x1f, 0x22, 0xe7, 0x07,
  0xdb, 0xb1, 0x23, 0x14, 0x38, 0x15, 0x0e, 0xf0, 0x39, 0xe2, 0x09, 0xf6,
  0xf4, 0x01, 0x25, 0x32, 0xf4, 0xd8, 0x37, 0xe8, 0x38, 0xde, 0x15, 0xe6,
  0x08, 0x00, 0x10, 0xe8, 0x1c, 0x10, 0x06, 0xf3, 0xfe, 0x01, 0xd3, 0x24,
  0xdc, 0x08, 0xf9, 0xf0, 0x15, 0xf1, 0xe5, 0x11, 0x20, 0xda, 0x29, 0xa1,
  0x46, 0x0f, 0xe2, 0xda, 0xde, 0xd2, 0x1d, 0x05, 0x19, 0xe7, 0xd8, 0xf0,
  0x0f, 0xfd, 0x03, 0x0a, 0x1f, 0x0f, 0x07, 0x19, 0xf7, 0x25, 0x06, 0xfb,
  0x22, 0x00, 0xf7, 0x2b, 0x08, 0xf4, 0xf9, 0xf6, 0x12, 0x1c, 0x1f, 0xe7,
  0xb6, 0x1a, 0xdd, 0xee, 0xfc, 0xf7, 0x0d, 0x25, 0xe8, 0x9a, 0xe1, 0xd9,
  0x00, 0x3b, 0xe9, 0xdd, 0xd6, 0xd3, 0xdc, 0x21, 0x0a, 0x38, 0xf0, 0x2d,
  0xd5, 0xe9, 0xff, 0xed, 0x11, 0x4f, 0x27, 0xed, 0xfe, 0x12, 0x07, 0xe8,
  0xfb, 0x33, 0xea, 0x1b, 0xed, 0xca, 0x33, 0xff, 0x24, 0x0f, 0x12, 0x05,
  0x12, 0xe8, 0x06, 0x1f, 0x2e, 0x58, 0xe0, 0xf8, 0x08, 0xf5, 0xdc, 0xfe,
  0xf9, 0xf7, 0x0d, 0x0b, 0x0e, 0x1a, 0xe3, 0xf4, 0x0f, 0xfc, 0xde, 0x16,
  0x09, 0x81, 0xe5, 0xf4, 0x09, 0x16, 0xef, 0x0f, 0xd4, 0xf0, 0x34, 0x36,
  0x10, 0x38, 0xcb, 0xee, 0xde, 0x9e, 0x02, 0xe6, 0x17, 0x11, 0xd5, 0xcb,
  0xd0, 0xfc, 0x02, 0xf1, 0xd5, 0x1a, 0xc2, 0xcb, 0xe6, 0x87, 0xea, 0xdf,
  0x17, 0x33, 0xd1, 0xdd, 0xc6, 0xe8, 0xed, 0xd1, 0x35, 0x46, 0xea, 0xeb,
  0xda, 0xae, 0xfb, 0xc5, 0x1f, 0x2f, 0xe3, 0x13, 0x38, 0x06, 0x18, 0xce,
  0x36, 0x22, 0xdc, 0xef, 0x2e, 0xe0, 0xe3, 0xef, 0xf6, 0xf3, 0xec, 0xf8,
  0xd9, 0x0f, 0xf6, 0x0c, 0x19, 0xef, 0xf3, 0x28, 0x2f, 0xf0, 0xfd, 0xfb,
  0x37, 0x23, 0xd1, 0x0e, 0x07, 0x0f, 0x01, 0x00, 0xef, 0x2b, 0x08, 0xfa,
  0xde, 0x03, 0xdf, 0x0e, 0xff, 0x12, 0xe0, 0x25, 0x10, 0x10, 0x3d, 0x0d,
  0xa3, 0xee, 0x01, 0x18, 0xe9, 0xff, 0xfd, 0x06, 0xfc, 0x11, 0xd6, 0xe9,
  0xe2, 0x1a, 0x18, 0x1d, 0xe6, 0x30, 0xe3, 0xf5, 0x1c, 0x08, 0xfb, 0x11,
  0x0d, 0x0b, 0xb7, 0x07, 0xea, 0x0a, 0x28, 0xfb, 0xe9, 0xe4, 0x07, 0xf5,
  0x19, 0x23, 0x1d, 0x04, 0x02, 0x14, 0xd4, 0x0f, 0xf6, 0xfe, 0xe1, 0xfe,
  0x0a, 0xe4, 0x02, 0x05, 0x03, 0x1a, 0x07, 0xe8, 0xe5, 0x0c, 0x04, 0x15,
  0x03, 0xf4, 0x08, 0xfd, 0x10, 0xfd, 0x19, 0xff, 0x21, 0x0f, 0x03, 0xf7,
  0x08, 0xdb, 0x36, 0x17, 0x0a, 0xee, 0xda, 0x05, 0x2d, 0xf2, 0x23, 0x0e,
  0x32, 0x39, 0x1e, 0xf0, 0xfc, 0x21, 0xf7, 0x12, 0x00, 0x02, 0xe1, 0x17,
  0x06, 0x17, 0x06, 0x21, 0x0b, 0x32, 0x14, 0x15, 0x05, 0xd4, 0x0c, 0xff,
  0xeb, 0xf0, 0xf8, 0xf0, 0xef, 0xf5, 0xf3, 0xf0, 0x04, 0x25, 0xfa, 0xef,
  0xdc, 0xea, 0x29, 0xea, 0x1c, 0xf7, 0x05, 0xed, 0xf1, 0x06, 0x08, 0xd6,
  0x04, 0xf2, 0xd3, 0x05, 0xf1, 0x0c, 0x09, 0xf3, 0xcc, 0xcd, 0xfa, 0xe0,
  0x26, 0xf9, 0xdf, 0xfa, 0xd8, 0xeb, 0x0f, 0x83, 0xfe, 0xfc, 0xaf, 0xe5,
  0x0d, 0xb2, 0xc6, 0x01, 0xed, 0x1a, 0xc0, 0xf4, 0xea, 0xf7, 0xe4, 0x9b,
  0xfa, 0x04, 0x9b, 0xf0, 0x03, 0x27, 0x01, 0xef, 0x02, 0x13, 0xe1, 0xf6,
  0x0e, 0x09, 0xec, 0x0b, 0xe6, 0xed, 0x2a, 0x06, 0xfe, 0xf6, 0x18, 0x1b,
  0x21, 0x17, 0x19, 0xd5, 0xd8, 0xa1, 0x9a, 0x02, 0xce, 0xe7, 0xe8, 0xce,
  0xed, 0xeb, 0x15, 0xf8, 0xf1, 0x27, 0x07, 0x15, 0x0b, 0x81, 0xfc, 0xe1,
  0x19, 0xfb, 0x19, 0x03, 0xd9, 0xf5, 0x22, 0x14, 0x18, 0x15, 0xf8, 0x06,
  0xd2, 0x12, 0x11, 0xfa, 0x0f, 0xec, 0xf6, 0x06, 0x0d, 0x18, 0xee, 0xe3,
  0xdf, 0x03, 0x27, 0x00, 0x0c, 0x57, 0xf9, 0x0d, 0x1d, 0xe8, 0xfd, 0x10,
  0x15, 0x09, 0xe0, 0xdd, 0x27, 0xdc, 0xfc, 0xc9, 0x18, 0x3b, 0x11, 0x0e,
  0x0b, 0x12, 0x08, 0x2f, 0x4c, 0x1a, 0x0b, 0xee, 0x50, 0x08, 0x00, 0xd1,
  0xf9, 0xb3, 0xc4, 0xdc, 0x0d, 0xf7, 0xe5, 0xe1, 0xc5, 0xfc, 0xd6, 0xfc,
  0xd6, 0xfe, 0xb9, 0x1d, 0x0b, 0xd6, 0x0c, 0xed, 0xd6, 0x05, 0xfc, 0xf9,
  0xee, 0x0e, 0xe2, 0x1a, 0xf6, 0x37, 0xfb, 0xeb, 0x0f, 0x0b, 0x2c, 0xf7,
  0x22, 0x0e, 0xf2, 0xef, 0xf8, 0x04, 0x13, 0xdc, 0xef, 0xfa, 0x16, 0x11,
  0x01, 0x63, 0xee, 0x3b, 0xbb, 0xcb, 0x26, 0x0c, 0x1c, 0xc4, 0xc5, 0xd4,
  0x21, 0xa1, 0x26, 0xf4, 0x24, 0x4b, 0xf2, 0x51, 0xed, 0xb1, 0x55, 0x10,
  0x32, 0xf3, 0xc2, 0xcf, 0x53, 0x8a, 0x25, 0x28, 0x19, 0x0e, 0x26, 0xba,
  0xea, 0xb8, 0xcd, 0x03, 0xfa, 0xdc, 0x00, 0x11, 0xb0, 0x0a, 0x0c, 0x08,
  0x2a, 0x0d, 0xe7, 0xd5, 0xd4, 0xd7, 0xc6, 0xf5, 0xfc, 0x17, 0xee, 0xff,
  0xd7, 0x1a, 0x1e, 0x0b, 0xe1, 0x18, 0x32, 0xff, 0xc8, 0xde, 0x06, 0x0c,
  0x1b, 0x05, 0x29, 0x08, 0xf7, 0xf3, 0x12, 0x1e, 0xf9, 0x23, 0x00, 0xf3,
  0x89, 0xc3, 0x03, 0xf4, 0xf1, 0x0e, 0x22, 0xf6, 0xc0, 0xb2, 0x41, 0x11,
  0xed, 0x68, 0xad, 0x2d, 0xb4, 0xc2, 0xee, 0xd2, 0xdf, 0x28, 0xdc, 0x17,
  0xe7, 0xa3, 0x32, 0x09, 0x0c, 0x4e, 0xee, 0x3e, 0x06, 0xcd, 0x00, 0x01,
  0x4b, 0x41, 0x37, 0x18, 0x0d, 0x15, 0x35, 0x17, 0x0d, 0x40, 0xe7, 0x05,
  0xf0, 0xf3, 0xeb, 0xdf, 0x32, 0xf9, 0xe5, 0x03, 0xe6, 0x00, 0xfb, 0x1b,
  0x0a, 0xf8, 0x0d, 0x12, 0xe3, 0xde, 0xe8, 0x0d, 0x1f, 0x10, 0x0c, 0x1b,
  0xff, 0x0f, 0x05, 0x04, 0x02, 0xd4, 0x0e, 0xef, 0xec, 0xec, 0x0c, 0x01,
  0xcd, 0x06, 0xe4, 0xff, 0xd6, 0x37, 0x0d, 0xdd, 0xd5, 0xc4, 0xdb, 0xbf,
  0xdd, 0xd0, 0xa1, 0x03, 0xae, 0x11, 0x2f, 0xfa, 0xa5, 0x0d, 0x1d, 0xe0,
  0xdd, 0xfb, 0x31, 0x14, 0xd0, 0xd5, 0x10, 0xf3, 0x35, 0xe2, 0xe2, 0xf9,
  0x04, 0xff, 0x1e, 0xf2, 0x10, 0x1e, 0x22, 0xf0, 0xf3, 0xfa, 0x4e, 0x05,
  0x29, 0x17, 0xfd, 0x06, 0x34, 0xe8, 0x29, 0x09, 0x06, 0x17, 0x21, 0xfc,
  0xff, 0xf4, 0x41, 0x1f, 0xe5, 0xf6, 0x14, 0xfb, 0xff, 0xd9, 0x0e, 0x02,
  0xe7, 0xe3, 0x06, 0x11, 0x2d, 0x0b, 0x23, 0x24, 0xf8, 0x0a, 0x1c, 0x03,
  0x0e, 0x04, 0xdf, 0xec, 0x10, 0xd1, 0xea, 0xe7, 0x03, 0x28, 0xf3, 0x23,
  0x11, 0xf0, 0xf5, 0x1d, 0x3d, 0x22, 0xad, 0x13, 0x06, 0xd4, 0xff, 0xe4,
  0x34, 0x2e, 0xfa, 0x14, 0xef, 0xe6, 0xe5, 0x22, 0x06, 0x13, 0x03, 0x1e,
  0x0b, 0xf7, 0x10, 0xdc, 0x1d, 0x3a, 0xde, 0xf6, 0xdd, 0x05, 0xd8, 0xdf,
  0xe6, 0xf3, 0xe1, 0x17, 0xee, 0xe5, 0x20, 0xdf, 0x13, 0x21, 0xdc, 0x07,
  0xed, 0xf2, 0xe7, 0xe3, 0xe1, 0x35, 0xd0, 0xfe, 0x04, 0xf3, 0x3c, 0xd4,
  0x29, 0x11, 0xe8, 0x1b, 0xf6, 0xd6, 0xd5, 0x04, 0x24, 0x12, 0xe8, 0x01,
  0x1a, 0x45, 0xf5, 0xdd, 0x26, 0x2c, 0xf8, 0x1a, 0x35, 0xdb, 0xf1, 0x15,
  0xfa, 0x08, 0x01, 0x1d, 0xff, 0xcd, 0x01, 0x05, 0x13, 0x22, 0x06, 0x09,
  0xd6, 0xfd, 0xee, 0x0c, 0xee, 0x2b, 0x03, 0xef, 0x16, 0xf5, 0xeb, 0xe4,
  0x1a, 0x17, 0x16, 0xe9, 0xf1, 0xdf, 0xee, 0x0f, 0x14, 0x20, 0xdd, 0xea,
  0xed, 0xf7, 0x02, 0xff, 0x2b, 0x2a, 0x02, 0xd1, 0x0e, 0xd1, 0x05, 0xf0,
  0x17, 0xea, 0xd6, 0xce, 0xcf, 0x09, 0x1c, 0x1e, 0x0d, 0xf2, 0x42, 0xfa,
  0x23, 0x05, 0x04, 0xea, 0x46, 0xee, 0x15, 0xdf, 0x14, 0x4d, 0xe3, 0x21,
  0xda, 0xe4, 0x3c, 0xdd, 0x1c, 0xe2, 0x04, 0xe7, 0x20, 0xd5, 0x26, 0x06,
  0x09, 0xcf, 0x0b, 0x0c, 0x15, 0x15, 0xe4, 0xe3, 0xf0, 0xdd, 0xe3, 0x12,
  0x08, 0xf6, 0xc0, 0x09, 0xfb, 0x8d, 0x03, 0xf4, 0xf5, 0x16, 0xdb, 0xec,
  0xe1, 0x0d, 0x10, 0xf5, 0xff, 0x1c, 0xc1, 0xfc, 0xe8, 0xc6, 0x0e, 0xf7,
  0x0d, 0x16, 0x0d, 0x0d, 0xe5, 0x1a, 0x09, 0x0d, 0x29, 0x08, 0x0f, 0xf0,
  0x04, 0xfc, 0xf3, 0x2d, 0xd2, 0xc4, 0x2f, 0x22, 0xff, 0x0c, 0x0c, 0xf0,
  0x1c, 0xc4, 0x38, 0xd5, 0xe6, 0xe2, 0xfe, 0x0d, 0xde, 0xd4, 0x06, 0x02,
  0x11, 0xfb, 0xf8, 0xf3, 0xdf, 0x06, 0x3b, 0x25, 0x1c, 0xf9, 0x07, 0xc7,
  0xf2, 0xff, 0xb2, 0x0b, 0xd7, 0xd1, 0x03, 0xfa, 0xdf, 0x10, 0xb1, 0x10,
  0x29, 0x96, 0xe9, 0xd7, 0xe7, 0x30, 0xb9, 0x03, 0xf0, 0xec, 0x13, 0xf5,
  0xc3, 0x0a, 0xd8, 0x1a, 0x0a, 0xd2, 0x12, 0xfe, 0x02, 0xfe, 0xd9, 0x06,
  0xf6, 0x1a, 0x22, 0x01, 0x22, 0xf4, 0xf7, 0x0c, 0x1a, 0xd9, 0xe4, 0xed,
  0xe7, 0xd2, 0xe7, 0xf5, 0xe5, 0x1f, 0x18, 0x05, 0xd7, 0x11, 0x22, 0xf6,
  0xf3, 0xf7, 0x21, 0xeb, 0x1d, 0x2d, 0xd2, 0x14, 0x12, 0x0c, 0x0b, 0x22,
  0xf3, 0x20, 0xd9, 0xfb, 0x01, 0x0c, 0x05, 0xd0, 0xda, 0xef, 0xc9, 0x07,
  0x18, 0xcb, 0xfa, 0x10, 0xac, 0x01, 0xd2, 0x0c, 0x2a, 0x19, 0x29, 0xe4,
  0xfe, 0x14, 0xaa, 0xee, 0x08, 0xf8, 0x28, 0x08, 0x81, 0x16, 0xf6, 0x20,
  0xf8, 0x00, 0x12, 0xf4, 0x04, 0xf4, 0xf2, 0x00, 0xe6, 0x27, 0x16, 0x0c,
  0xd5, 0xd9, 0xee, 0x29, 0xfb, 0x0a, 0x07, 0x24, 0x1c, 0x16, 0xe8, 0x11,
  0x2b, 0x0f, 0x0b, 0x02, 0xf2, 0xb0, 0xf3, 0x21, 0xe9, 0x07, 0xdb, 0x2a,
  0x01, 0x20, 0xe4, 0x25, 0xf3, 0xdf, 0xe3, 0x0b, 0xde, 0xee, 0x0d, 0x19,
  0xdf, 0x0c, 0x21, 0xf3, 0x06, 0x1c, 0xe9, 0x1d, 0xca, 0xea, 0xfb, 0x13,
  0xfd, 0xe9, 0x11, 0x3f, 0x09, 0x11, 0xfc, 0x31, 0x04, 0xc7, 0x0c, 0x09,
  0x03, 0x04, 0x2d, 0xec, 0x22, 0xf4, 0x27, 0x32, 0xe4, 0x29, 0xe2, 0xf9,
  0x03, 0xcd, 0x1a, 0xdd, 0xe4, 0x2d, 0x16, 0xf9, 0x16, 0xd8, 0xfe, 0xf8,
  0x16, 0x00, 0xf5, 0x35, 0xe0, 0xec, 0x14, 0xdd, 0x00, 0x1f, 0xee, 0xc8,
  0xec, 0xc0, 0xfb, 0x09, 0xd8, 0xef, 0x04, 0x20, 0xe5, 0xdb, 0xfd, 0x18,
  0xfa, 0x35, 0x04, 0xd8, 0x2e, 0xfc, 0x1f, 0xd7, 0xf5, 0x0f, 0xef, 0x1b,
  0xbd, 0xb3, 0xef, 0x3b, 0x0a, 0x2b, 0x46, 0x0d, 0xde, 0x01, 0x15, 0x03,
  0x23, 0x4a, 0x09, 0xe6, 0xd6, 0xe1, 0xea, 0xfd, 0xdb, 0x32, 0x43, 0x07,
  0xdd, 0xdc, 0x45, 0x3d, 0xf7, 0x56, 0xff, 0x08, 0xea, 0xfc, 0x2d, 0x40,
  0x17, 0x0b, 0xf6, 0xeb, 0xdf, 0xdc, 0x1c, 0x1f, 0x08, 0x3a, 0xd7, 0x09,
  0xef, 0x0f, 0x17, 0x1b, 0xe5, 0xf7, 0x37, 0xe3, 0x0d, 0x46, 0x29, 0x30,
  0x1a, 0xcb, 0x3b, 0xdf, 0x27, 0xf3, 0xfe, 0x27, 0xf7, 0xf8, 0x03, 0x1c,
  0x46, 0xfb, 0x24, 0x0d, 0x26, 0xfd, 0x08, 0xf7, 0xce, 0xfd, 0xef, 0x29,
  0x07, 0xf7, 0xe2, 0xf3, 0xfe, 0x10, 0x1e, 0x14, 0xcc, 0x16, 0x0f, 0xf0,
  0xf7, 0x35, 0x5f, 0x02, 0xf9, 0xfe, 0xfb, 0xdf, 0x5f, 0x22, 0x3b, 0xd8,
  0xf1, 0x17, 0x20, 0xbe, 0xfa, 0x28, 0x4b, 0xf3, 0x30, 0xd9, 0xc5, 0xfb,
  0x2d, 0x27, 0xd4, 0xd8, 0xdb, 0xfe, 0x15, 0x9d, 0x0a, 0xfb, 0xb1, 0xdd,
  0xf8, 0xe7, 0x27, 0x1f, 0xca, 0x10, 0xe5, 0xfd, 0xe1, 0xdb, 0x30, 0x0c,
  0xe6, 0x1b, 0x31, 0x07, 0xd2, 0x29, 0x32, 0xdb, 0xea, 0xdf, 0x19, 0xfc,
  0xdd, 0x29, 0x1c, 0x38, 0xfc, 0x40, 0xf6, 0xd0, 0xd8, 0xda, 0xc8, 0xb8,
  0x1e, 0xe5, 0x02, 0x13, 0xdf, 0xf5, 0x36, 0x34, 0x01, 0x58, 0x4c, 0xda,
  0xeb, 0xfb, 0xed, 0xe2, 0x56, 0xfc, 0xec, 0xf4, 0xcd, 0xde, 0xf6, 0x08,
  0x1c, 0x07, 0x2e, 0xd9, 0xa6, 0xe3, 0xc8, 0xce, 0x3a, 0x25, 0xd2, 0x09,
  0x31, 0x10, 0x0b, 0xfe, 0x06, 0xf8, 0x14, 0x09, 0x1e, 0x00, 0xeb, 0xdb,
  0x1d, 0x16, 0xd6, 0xe9, 0xf0, 0x26, 0x24, 0x1e, 0xf8, 0x23, 0x17, 0x16,
  0x1f, 0x31, 0xea, 0xe4, 0x27, 0x20, 0x03, 0x0a, 0xe5, 0xc6, 0xd7, 0xff,
  0x0a, 0x13, 0x1c, 0xea, 0xfc, 0x1c, 0xf9, 0xea, 0x1d, 0xe0, 0x2f, 0xfa,
  0xc9, 0xd2, 0xc7, 0x09, 0xdc, 0x2e, 0xf4, 0xb2, 0xf9, 0xcf, 0x9e, 0xc6,
  0x16, 0xfc, 0xc0, 0xe7, 0xed, 0x9e, 0xeb, 0x8b, 0x0c, 0x22, 0xfe, 0x0c,
  0xef, 0xb4, 0xac, 0xe4, 0xfd, 0x23, 0x8f, 0x0f, 0xe6, 0xfc, 0xd0, 0xc0,
  0xde, 0x16, 0x07, 0xf9, 0x01, 0x17, 0xe5, 0x10, 0x5f, 0x35, 0x96, 0x0e,
  0xc1, 0x10, 0xd5, 0xdb, 0xdd, 0xf6, 0xf9, 0xcc, 0x19, 0xec, 0xd8, 0xc9,
  0xe5, 0x89, 0x81, 0xbb, 0xe8, 0xea, 0x11, 0xd3, 0xfa, 0xf6, 0x0b, 0x05,
  0xd7, 0xf4, 0x08, 0xdb, 0xff, 0x1a, 0xd1, 0xdf, 0xe6, 0xf4, 0x26, 0x17,
  0x00, 0x1d, 0x0c, 0x26, 0x0c, 0xfd, 0xe9, 0x02, 0x19, 0x05, 0x04, 0xe8,
  0x11, 0xe0, 0x4b, 0x19, 0x2f, 0xf4, 0xf1, 0xf8, 0x4e, 0x02, 0xf7, 0x1b,
  0x0f, 0x01, 0x0b, 0x18, 0x0f, 0x19, 0xdd, 0x11, 0xf4, 0x07, 0x11, 0x00,
  0x1a, 0xe8, 0xed, 0x1a, 0xe5, 0xec, 0x0c, 0xfe, 0x2c, 0x16, 0x11, 0xfc,
  0x0b, 0xe1, 0xcf, 0x2c, 0x2c, 0x0c, 0x16, 0x22, 0xf2, 0x02, 0xee, 0xe4,
  0x10, 0xeb, 0x0e, 0xed, 0x19, 0xf5, 0xee, 0x06, 0xdd, 0xe8, 0xe0, 0x18,
  0x0e, 0x0d, 0x02, 0xfb, 0x09, 0xc5, 0xf1, 0xcb, 0xfe, 0xed, 0xfe, 0x19,
  0x22, 0xe7, 0x1e, 0x2a, 0xff, 0x04, 0xfd, 0x18, 0xee, 0xeb, 0xe3, 0x0a,
  0xfb, 0xf1, 0xd0, 0x18, 0x1e, 0x16, 0xf1, 0x16, 0xcf, 0xec, 0x16, 0xfa,
  0xd3, 0x10, 0x13, 0x23, 0x21, 0xe3, 0xba, 0x05, 0x09, 0x1c, 0xfd, 0x22,
  0xad, 0xfa, 0xf0, 0xdc, 0xfd, 0xe8, 0xee, 0x24, 0xe4, 0xf6, 0xdd, 0x00,
  0x2b, 0x06, 0xfc, 0x42, 0x06, 0x19, 0xeb, 0x11, 0xf8, 0x1d, 0xee, 0xd4,
  0xed, 0xd3, 0x1a, 0x1b, 0x14, 0x3c, 0x07, 0x07, 0xef, 0xfa, 0xfc, 0x16,
  0x0b, 0xd7, 0xef, 0xcb, 0xc2, 0xea, 0x06, 0x24, 0x25, 0x24, 0x29, 0x35,
  0xaa, 0xdb, 0x2a, 0x12, 0xe2, 0xe6, 0xd4, 0xee, 0x09, 0xf1, 0xb2, 0xf2,
  0x1a, 0x43, 0x14, 0x2a, 0xaa, 0x12, 0xfa, 0x1b, 0x10, 0xdb, 0x33, 0x2c,
  0x08, 0x14, 0xcf, 0x10, 0x24, 0x1f, 0xda, 0x19, 0x1d, 0xb0, 0xfa, 0x1e,
  0x1a, 0x1b, 0x22, 0x35, 0x23, 0x33, 0xf6, 0x0b, 0x56, 0xf7, 0xe8, 0x2d,
  0x0f, 0xe6, 0xcc, 0xf4, 0x23, 0x13, 0xda, 0x10, 0x00, 0x20, 0x1f, 0xed,
  0x0f, 0x15, 0xe4, 0xff, 0x2f, 0x05, 0xef, 0xd2, 0x27, 0xba, 0xfb, 0x1c,
  0x1f, 0x13, 0xf9, 0x09, 0x05, 0xcc, 0xdf, 0x19, 0x12, 0x1f, 0xe8, 0x1a,
  0xf9, 0xef, 0x27, 0xdf, 0x06, 0x22, 0xbf, 0x10, 0xee, 0x00, 0xe7, 0x11,
  0x28, 0x0d, 0xaf, 0xfc, 0xe7, 0x12, 0xee, 0x04, 0xe3, 0xc6, 0xca, 0xfb,
  0x3c, 0x19, 0x17, 0xfa, 0xe6, 0xb9, 0x12, 0xd9, 0xcd, 0xfb, 0xe3, 0x4c,
  0xbb, 0xfe, 0xba, 0xe1, 0xff, 0xf9, 0xea, 0xe1, 0x91, 0x18, 0x3b, 0x12,
  0xe9, 0xc5, 0x20, 0xdd, 0x35, 0x0a, 0xe4, 0x0e, 0xb2, 0xfc, 0xf1, 0x05,
  0xe5, 0x15, 0xa9, 0x26, 0xe5, 0xd7, 0xc4, 0x05, 0x10, 0x0a, 0x81, 0x00,
  0xf9, 0x30, 0xf6, 0x2e, 0xd4, 0xfb, 0xcc, 0x21, 0x0b, 0xd4, 0xe4, 0x21,
  0xcf, 0xcf, 0xad, 0x38, 0x24, 0x22, 0x10, 0x2c, 0xab, 0xf8, 0xea, 0xdf,
  0x03, 0xdc, 0x20, 0x10, 0xff, 0x12, 0xc2, 0x1b, 0x25, 0xf9, 0x1d, 0x2b,
  0x0b, 0xd9, 0xf5, 0xee, 0xf0, 0xd9, 0x0d, 0xd9, 0x2a, 0xf5, 0xb8, 0x19,
  0xd9, 0x1c, 0x2e, 0xdd, 0xd9, 0x08, 0xe8, 0x01, 0xe7, 0xf2, 0xc5, 0x1e,
  0xdd, 0xa2, 0xfc, 0xe9, 0x0d, 0xfe, 0xf9, 0x1c, 0x0b, 0x00, 0xfe, 0x06,
  0x02, 0xc2, 0x1e, 0x11, 0xfe, 0xc7, 0x09, 0xed, 0x23, 0x18, 0x04, 0xf2,
  0xeb, 0xf5, 0xf7, 0xee, 0x23, 0xf7, 0x19, 0x25, 0x08, 0xce, 0x07, 0x14,
  0x23, 0xf7, 0x21, 0xf6, 0x14, 0xfd, 0x22, 0xe8, 0xfc, 0x09, 0x0b, 0x1a,
  0xdf, 0xd1, 0x1d, 0x1c, 0x12, 0x0c, 0x21, 0xe1, 0xf3, 0xe0, 0x12, 0xf7,
  0x09, 0xf1, 0xdd, 0x13, 0xf7, 0x01, 0xf8, 0xe9, 0xab, 0x07, 0xee, 0xfd,
  0xfe, 0xbd, 0xf8, 0xd2, 0x1a, 0xad, 0xef, 0x1a, 0x0d, 0x1f, 0xec, 0xdf,
  0xed, 0xe0, 0xf0, 0x03, 0xf0, 0xe8, 0xec, 0xe8, 0xe8, 0x04, 0x14, 0x21,
  0x0d, 0x08, 0x1e, 0x13, 0x25, 0xe2, 0x05, 0xeb, 0x19, 0x07, 0x0a, 0xf2,
  0x1a, 0xf9, 0xfa, 0x0f, 0x22, 0xf6, 0xfd, 0x03, 0x36, 0xed, 0xed, 0x0c,
  0x34, 0xe1, 0xf7, 0xf2, 0x09, 0xee, 0xf6, 0x1c, 0x03, 0xe2, 0xd8, 0x12,
  0xf7, 0x2a, 0x0f, 0x2a, 0xde, 0x00, 0xf1, 0xe4, 0x01, 0xff, 0x02, 0x06,
  0xe3, 0xea, 0xbd, 0xf7, 0xdc, 0x22, 0xfb, 0x12, 0x81, 0x0c, 0x1c, 0x16,
  0xf8, 0xcd, 0xf3, 0xdb, 0x0d, 0x1d, 0xbe, 0x1b, 0xe2, 0xe3, 0xf9, 0x20,
  0xfe, 0x0a, 0xcd, 0x11, 0x15, 0xff, 0xe5, 0xde, 0xe7, 0x0d, 0xcb, 0x0a,
  0xfe, 0xfb, 0x31, 0xfd, 0xc7, 0x0f, 0xd5, 0x23, 0xfa, 0x06, 0x11, 0x3d,
  0x12, 0xe2, 0xd9, 0x20, 0x09, 0xf8, 0x12, 0xfe, 0xd0, 0xe9, 0x1b, 0xf9,
  0x27, 0x0e, 0x14, 0xff, 0x01, 0xfe, 0x18, 0xf9, 0xe5, 0x0a, 0x0b, 0x27,
  0x1d, 0xdd, 0xd7, 0xfd, 0x0e, 0xba, 0x2b, 0xcd, 0x23, 0xf4, 0xb5, 0x10,
  0xea, 0x10, 0xfd, 0xf7, 0xf8, 0x10, 0xf6, 0xf8, 0xe9, 0x16, 0x0f, 0xca,
  0xdf, 0xdc, 0xd4, 0xfe, 0x0a, 0x1e, 0x0c, 0xef, 0xd2, 0x00, 0xc8, 0x1a,
  0x12, 0x03, 0x0c, 0x10, 0xbc, 0xd6, 0x06, 0x00, 0x22, 0x1e, 0x26, 0x24,
  0xa9, 0xfd, 0x33, 0x25, 0x0d, 0x1f, 0xf2, 0x31, 0xf7, 0xdc, 0xf5, 0x1d,
  0xf2, 0xe0, 0xb3, 0xee, 0x09, 0x13, 0xf5, 0x11, 0x01, 0x06, 0xfa, 0xef,
  0xf6, 0x30, 0x18, 0xdc, 0x18, 0xf7, 0xf2, 0x13, 0x23, 0x20, 0xa4, 0x09,
  0xd8, 0xce, 0xf4, 0x98, 0x2a, 0x10, 0x0a, 0x01, 0xef, 0x05, 0xfe, 0xd5,
  0xe9, 0xef, 0xc9, 0x05, 0xe8, 0x14, 0x08, 0x05, 0x01, 0xea, 0xf2, 0xf9,
  0x13, 0xfa, 0x0c, 0x01, 0x00, 0x0e, 0x03, 0xe9, 0x02, 0x2e, 0xf0, 0x2e,
  0xc3, 0xf9, 0x2c, 0xf7, 0x0d, 0xf1, 0xe7, 0xed, 0x2b, 0x10, 0x0a, 0x02,
  0x05, 0x1c, 0x04, 0xe6, 0xe6, 0xff, 0x08, 0xd9, 0x0a, 0xc7, 0xd7, 0xde,
  0x11, 0xf5, 0xfb, 0xdd, 0xe1, 0xed, 0xff, 0xde, 0xfb, 0xf4, 0x11, 0x03,
  0xe0, 0xd4, 0x05, 0xe7, 0x00, 0x13, 0xe5, 0x0d, 0xf6, 0xce, 0x0d, 0xfa,
  0xe6, 0xf4, 0x12, 0xde, 0xd3, 0xe4, 0xf8, 0x05, 0xff, 0x11, 0x12, 0xec,
  0x02, 0xff, 0xff, 0xff, 0x04, 0x00, 0x00, 0x00, 0x28, 0x00, 0x00, 0x00,
  0x2b, 0x01, 0x00, 0x00, 0xe3, 0x02, 0x00, 0x00, 0x4a, 0xff, 0xff, 0xff,
  0xcb, 0xfc, 0xff, 0xff, 0x28, 0x00, 0x00, 0x00, 0x50, 0x00, 0x00, 0x00,
  0x6a, 0xff, 0xff, 0xff, 0x8e, 0x01, 0x00, 0x00, 0xca, 0xfe, 0xff, 0xff,
  0xc8, 0xff, 0xff, 0xff, 0x36, 0xff, 0xff, 0xff, 0x04, 0x00, 0x00, 0x00,
  0x08, 0x00, 0x00, 0x00, 0xff, 0xff, 0xff, 0xff, 0x90, 0x01, 0x00, 0x00,
  0x14, 0xf2, 0xff, 0xff, 0x18, 0xf2, 0xff, 0xff, 0x0f, 0x00, 0x00, 0x00,
  0x4d, 0x4c, 0x49, 0x52, 0x20, 0x43, 0x6f, 0x6e, 0x76, 0x65, 0x72, 0x74,
  0x65, 0x64, 0x2e, 0x00, 0x01, 0x00, 0x00, 0x00, 0x14, 0x00, 0x00, 0x00,
  0x00, 0x00, 0x0e, 0x00, 0x18, 0x00, 0x14, 0x00, 0x10, 0x00, 0x0c, 0x00,
  0x08, 0x00, 0x04, 0x00, 0x0e, 0x00, 0x00, 0x00, 0x14, 0x00, 0x00, 0x00,
  0x1c, 0x00, 0x00, 0x00, 0x64, 0x02, 0x00, 0x00, 0x68, 0x02, 0x00, 0x00,
  0x6c, 0x02, 0x00, 0x00, 0x04, 0x00, 0x00, 0x00, 0x6d, 0x61, 0x69, 0x6e,
  0x00, 0x00, 0x00, 0x00, 0x09, 0x00, 0x00, 0x00, 0x2c, 0x02, 0x00, 0x00,
  0xcc, 0x01, 0x00, 0x00, 0x68, 0x01, 0x00, 0x00, 0x10, 0x01, 0x00, 0x00,
  0xcc, 0x00, 0x00, 0x00, 0xa4, 0x00, 0x00, 0x00, 0x60, 0x00, 0x00, 0x00,
  0x24, 0x00, 0x00, 0x00, 0x04, 0x00, 0x00, 0x00, 0x02, 0xfe, 0xff, 0xff,
  0x08, 0x00, 0x00, 0x00, 0x0c, 0x00, 0x00, 0x00, 0x01, 0x00, 0x00, 0x00,
  0x10, 0x00, 0x00, 0x00, 0x01, 0x00, 0x00, 0x00, 0x0f, 0x00, 0x00, 0x00,
  0xde, 0xfe, 0xff, 0xff, 0x1c, 0x00, 0x00, 0x00, 0x00, 0x00, 0x00, 0x09,
  0x1c, 0x00, 0x00, 0x00, 0x20, 0x00, 0x00, 0x00, 0x05, 0x00, 0x00, 0x00,
  0x00, 0x00, 0x06, 0x00, 0x08, 0x00, 0x04, 0x00, 0x06, 0x00, 0x00, 0x00,
  0x00, 0x00, 0x80, 0x3f, 0x01, 0x00, 0x00, 0x00, 0x0f, 0x00, 0x00, 0x00,
  0x01, 0x00, 0x00, 0x00, 0x0e, 0x00, 0x00, 0x00, 0xb6, 0xfe, 0xff, 0xff,
  0x14, 0x00, 0x00, 0x00, 0x00, 0x00, 0x00, 0x08, 0x10, 0x00, 0x00, 0x00,
  0x14, 0x00, 0x00, 0x00, 0x04, 0x00, 0x00, 0x00, 0x00, 0xf3, 0xff, 0xff,
  0x01, 0x00, 0x00, 0x00, 0x0e, 0x00, 0x00, 0x00, 0x03, 0x00, 0x00, 0x00,
  0x0d, 0x00, 0x00, 0x00, 0x03, 0x00, 0x00, 0x00, 0x02, 0x00, 0x00, 0x00,
  0x00, 0x00, 0x0a, 0x00, 0x10, 0x00, 0x0c, 0x00, 0x08, 0x00, 0x04, 0x00,
  0x0a, 0x00, 0x00, 0x00, 0x0c, 0x00, 0x00, 0x00, 0x10, 0x00, 0x00, 0x00,
  0x03, 0x00, 0x00, 0x00, 0x01, 0x00, 0x00, 0x00, 0x0d, 0x00, 0x00, 0x00,
  0x02, 0x00, 0x00, 0x00, 0x0c, 0x00, 0x00, 0x00, 0x01, 0x00, 0x00, 0x00,
  0x1a, 0xff, 0xff, 0xff, 0x14, 0x00, 0x00, 0x00, 0x00, 0x00, 0x00, 0x05,
  0x24, 0x00, 0x00, 0x00, 0x28, 0x00, 0x00, 0x00, 0x02, 0x00, 0x00, 0x00,
  0x6a, 0xff, 0xff, 0xff, 0x02, 0x00, 0x00, 0x00, 0x02, 0x00, 0x00, 0x00,
  0x02, 0x00, 0x00, 0x00, 0x02, 0x00, 0x00, 0x00, 0x00, 0x00, 0x00, 0x01,
  0x01, 0x00, 0x00, 0x00, 0x0c, 0x00, 0x00, 0x00, 0x01, 0x00, 0x00, 0x00,
  0x0b, 0x00, 0x00, 0x00, 0x5a, 0xff, 0xff, 0xff, 0x14, 0x00, 0x00, 0x00,
  0x00, 0x00, 0x00, 0x01, 0x20, 0x00, 0x00, 0x00, 0x24, 0x00, 0x00, 0x00,
  0x01, 0x00, 0x00, 0x00, 0x4c, 0xff, 0xff, 0xff, 0x00, 0x00, 0x00, 0x01,
  0x01, 0x00, 0x00, 0x00, 0x01, 0x00, 0x00, 0x00, 0x00, 0x00, 0x00, 0x01,
  0x01, 0x00, 0x00, 0x00, 0x0b, 0x00, 0x00, 0x00, 0x03, 0x00, 0x00, 0x00,
  0x0a, 0x00, 0x00, 0x00, 0x05, 0x00, 0x00, 0x00, 0x04, 0x00, 0x00, 0x00,
  0x00, 0x00, 0x0e, 0x00, 0x1a, 0x00, 0x14, 0x00, 0x10, 0x00, 0x0c, 0x00,
  0x0b, 0x00, 0x04, 0x00, 0x0e, 0x00, 0x00, 0x00, 0x24, 0x00, 0x00, 0x00,
  0x00, 0x00, 0x00, 0x05, 0x34, 0x00, 0x00, 0x00, 0x38, 0x00, 0x00, 0x00,
  0x02, 0x00, 0x00, 0x00, 0x00, 0x00, 0x0e, 0x00, 0x18, 0x00, 0x17, 0x00,
  0x10, 0x00, 0x0c, 0x00, 0x08, 0x00, 0x04, 0x00, 0x0e, 0x00, 0x00, 0x00,
  0x02, 0x00, 0x00, 0x00, 0x02, 0x00, 0x00, 0x00, 0x02, 0x00, 0x00, 0x00,
  0x02, 0x00, 0x00, 0x00, 0x00, 0x00, 0x00, 0x01, 0x01, 0x00, 0x00, 0x00,
  0x0a, 0x00, 0x00, 0x00, 0x01, 0x00, 0x00, 0x00, 0x09, 0x00, 0x00, 0x00,
  0x00, 0x00, 0x0e, 0x00, 0x18, 0x00, 0x14, 0x00, 0x10, 0x00, 0x0c, 0x00,
  0x0b, 0x00, 0x04, 0x00, 0x0e, 0x00, 0x00, 0x00, 0x20, 0x00, 0x00, 0x00,
  0x00, 0x00, 0x00, 0x01, 0x2c, 0x00, 0x00, 0x00, 0x30, 0x00, 0x00, 0x00,
  0x01, 0x00, 0x00, 0x00, 0x0c, 0x00, 0x14, 0x00, 0x13, 0x00, 0x0c, 0x00,
  0x08, 0x00, 0x07, 0x00, 0x0c, 0x00, 0x00, 0x00, 0x00, 0x00, 0x00, 0x01,
  0x01, 0x00, 0x00, 0x00, 0x01, 0x00, 0x00, 0x00, 0x00, 0x00, 0x00, 0x01,
  0x01, 0x00, 0x00, 0x00, 0x09, 0x00, 0x00, 0x00, 0x03, 0x00, 0x00, 0x00,
  0x08, 0x00, 0x00, 0x00, 0x07, 0x00, 0x00, 0x00, 0x06, 0x00, 0x00, 0x00,
  0x00, 0x00, 0x0a, 0x00, 0x0c, 0x00, 0x00, 0x00, 0x08, 0x00, 0x04, 0x00,
  0x0a, 0x00, 0x00, 0x00, 0x08, 0x00, 0x00, 0x00, 0x0c, 0x00, 0x00, 0x00,
  0x01, 0x00, 0x00, 0x00, 0x08, 0x00, 0x00, 0x00, 0x01, 0x00, 0x00, 0x00,
  0x00, 0x00, 0x00, 0x00, 0x01, 0x00, 0x00, 0x00, 0x10, 0x00, 0x00, 0x00,
  0x01, 0x00, 0x00, 0x00, 0x00, 0x00, 0x00, 0x00, 0x11, 0x00, 0x00, 0x00,
  0x70, 0x0b, 0x00, 0x00, 0x14, 0x0b, 0x00, 0x00, 0x2c, 0x0a, 0x00, 0x00,
  0x58, 0x09, 0x00, 0x00, 0x44, 0x08, 0x00, 0x00, 0x20, 0x07, 0x00, 0x00,
  0x6c, 0x06, 0x00, 0x00, 0xa8, 0x05, 0x00, 0x00, 0x24, 0x05, 0x00, 0x00,
  0x50, 0x04, 0x00, 0x00, 0xb4, 0x03, 0x00, 0x00, 0xc0, 0x02, 0x00, 0x00,
  0x24, 0x02, 0x00, 0x00, 0xa0, 0x01, 0x00, 0x00, 0x04, 0x01, 0x00, 0x00,
  0x80, 0x00, 0x00, 0x00, 0x04, 0x00, 0x00, 0x00, 0xea, 0xf4, 0xff, 0xff,
  0x00, 0x00, 0x00, 0x01, 0x18, 0x00, 0x00, 0x00, 0x20, 0x00, 0x00, 0x00,
  0x3c, 0x00, 0x00, 0x00, 0x11, 0x00, 0x00, 0x00, 0x00, 0x00, 0x00, 0x03,
  0x50, 0x00, 0x00, 0x00, 0x02, 0x00, 0x00, 0x00, 0xff, 0xff, 0xff, 0xff,
  0x0a, 0x00, 0x00, 0x00, 0xcc, 0xf4, 0xff, 0xff, 0x08, 0x00, 0x00, 0x00,
  0x10, 0x00, 0x00, 0x00, 0x01, 0x00, 0x00, 0x00, 0x00, 0x00, 0x00, 0x00,
  0x00, 0x00, 0x00, 0x00, 0x01, 0x00, 0x00, 0x00, 0x00, 0x00, 0x80, 0x3b,
  0x1b, 0x00, 0x00, 0x00, 0x53, 0x74, 0x61, 0x74, 0x65, 0x66, 0x75, 0x6c,
  0x50, 0x61, 0x72, 0x74, 0x69, 0x74, 0x69, 0x6f, 0x6e, 0x65, 0x64, 0x43,
  0x61, 0x6c, 0x6c, 0x5f, 0x31, 0x3a, 0x30, 0x00, 0x02, 0x00, 0x00, 0x00,
  0x01, 0x00, 0x00, 0x00, 0x0a, 0x00, 0x00, 0x00, 0x62, 0xf5, 0xff, 0xff,
  0x00, 0x00, 0x00, 0x01, 0x18, 0x00, 0x00, 0x00, 0x20, 0x00, 0x00, 0x00,
  0x40, 0x00, 0x00, 0x00, 0x10, 0x00, 0x00, 0x00, 0x00, 0x00, 0x00, 0x09,
  0x58, 0x00, 0x00, 0x00, 0x02, 0x00, 0x00, 0x00, 0xff, 0xff, 0xff, 0xff,
  0x0a, 0x00, 0x00, 0x00, 0x44, 0xf5, 0xff, 0xff, 0x08, 0x00, 0x00, 0x00,
  0x14, 0x00, 0x00, 0x00, 0x01, 0x00, 0x00, 0x00, 0x80, 0xff, 0xff, 0xff,
  0xff, 0xff, 0xff, 0xff, 0x00, 0x00, 0x00, 0x00, 0x01, 0x00, 0x00, 0x00,
  0x00, 0x00, 0x80, 0x3b, 0x1c, 0x00, 0x00, 0x00, 0x53, 0x74, 0x61, 0x74,
  0x65, 0x66, 0x75, 0x6c, 0x50, 0x61, 0x72, 0x74, 0x69, 0x74, 0x69, 0x6f,
  0x6e, 0x65, 0x64, 0x43, 0x61, 0x6c, 0x6c, 0x5f, 0x31, 0x3a, 0x30, 0x31,
  0x00, 0x00, 0x00, 0x00, 0x02, 0x00, 0x00, 0x00, 0x01, 0x00, 0x00, 0x00,
  0x0a, 0x00, 0x00, 0x00, 0xe2, 0xf5, 0xff, 0xff, 0x00, 0x00, 0x00, 0x01,
  0x18, 0x00, 0x00, 0x00, 0x20, 0x00, 0x00, 0x00, 0x3c, 0x00, 0x00, 0x00,
  0x0f, 0x00, 0x00, 0x00, 0x00, 0x00, 0x00, 0x09, 0x70, 0x00, 0x00, 0x00,
  0x02, 0x00, 0x00, 0x00, 0xff, 0xff, 0xff, 0xff, 0x0a, 0x00, 0x00, 0x00,
  0xc4, 0xf5, 0xff, 0xff, 0x08, 0x00, 0x00, 0x00, 0x10, 0x00, 0x00, 0x00,
  0x01, 0x00, 0x00, 0x00, 0x17, 0x00, 0x00, 0x00, 0x00, 0x00, 0x00, 0x00,
  0x01, 0x00, 0x00, 0x00, 0x25, 0x1f, 0x39, 0x3e, 0x38, 0x00, 0x00, 0x00,
  0x73, 0x65, 0x71, 0x75, 0x65, 0x6e, 0x74, 0x69, 0x61, 0x6c, 0x5f, 0x31,
  0x2f, 0x64, 0x65, 0x6e, 0x73, 0x65, 0x5f, 0x31, 0x2f, 0x4d, 0x61, 0x74,
  0x4d, 0x75, 0x6c, 0x3b, 0x73, 0x65, 0x71, 0x75, 0x65, 0x6e, 0x74, 0x69,
  0x61, 0x6c, 0x5f, 0x31, 0x2f, 0x64, 0x65, 0x6e, 0x73, 0x65, 0x5f, 0x31,
  0x2f, 0x42, 0x69, 0x61, 0x73, 0x41, 0x64, 0x64, 0x00, 0x00, 0x00, 0x00,
  0x02, 0x00, 0x00, 0x00, 0x01, 0x00, 0x00, 0x00, 0x0a, 0x00, 0x00, 0x00,
  0x7a, 0xf6, 0xff, 0xff, 0x00, 0x00, 0x00, 0x01, 0x18, 0x00, 0x00, 0x00,
  0x20, 0x00, 0x00, 0x00, 0x40, 0x00, 0x00, 0x00, 0x0e, 0x00, 0x00, 0x00,
  0x00, 0x00, 0x00, 0x09, 0x58, 0x00, 0x00, 0x00, 0x02, 0x00, 0x00, 0x00,
  0xff, 0xff, 0xff, 0xff, 0x90, 0x01, 0x00, 0x00, 0x5c, 0xf6, 0xff, 0xff,
  0x08, 0x00, 0x00, 0x00, 0x14, 0x00, 0x00, 0x00, 0x01, 0x00, 0x00, 0x00,
  0x80, 0xff, 0xff, 0xff, 0xff, 0xff, 0xff, 0xff, 0x00, 0x00, 0x00, 0x00,
  0x01, 0x00, 0x00, 0x00, 0x1d, 0x2d, 0x13, 0x3d, 0x1e, 0x00, 0x00, 0x00,
  0x73, 0x65, 0x71, 0x75, 0x65, 0x6e, 0x74, 0x69, 0x61, 0x6c, 0x5f, 0x31,
  0x2f, 0x66, 0x6c, 0x61, 0x74, 0x74, 0x65, 0x6e, 0x5f, 0x31, 0x2f, 0x52,
  0x65, 0x73, 0x68, 0x61, 0x70, 0x65, 0x00, 0x00, 0x02, 0x00, 0x00, 0x00,
  0x01, 0x00, 0x00, 0x00, 0x90, 0x01, 0x00, 0x00, 0xfa, 0xf6, 0xff, 0xff,
  0x00, 0x00, 0x00, 0x01, 0x18, 0x00, 0x00, 0x00, 0x28, 0x00, 0x00, 0x00,
  0x44, 0x00, 0x00, 0x00, 0x0d, 0x00, 0x00, 0x00, 0x00, 0x00, 0x00, 0x09,
  0x68, 0x00, 0x00, 0x00, 0x04, 0x00, 0x00, 0x00, 0xff, 0xff, 0xff, 0xff,
  0x05, 0x00, 0x00, 0x00, 0x05, 0x00, 0x00, 0x00, 0x10, 0x00, 0x00, 0x00,
  0xe4, 0xf6, 0xff, 0xff, 0x08, 0x00, 0x00, 0x00, 0x10, 0x00, 0x00, 0x00,
  0x01, 0x00, 0x00, 0x00, 0x80, 0xff, 0xff, 0xff, 0xff, 0xff, 0xff, 0xff,
  0x01, 0x00, 0x00, 0x00, 0x1d, 0x2d, 0x13, 0x3d, 0x28, 0x00, 0x00, 0x00,
  0x73, 0x65, 0x71, 0x75, 0x65, 0x6e, 0x74, 0x69, 0x61, 0x6c, 0x5f, 0x31,
  0x2f, 0x6d, 0x61, 0x78, 0x5f, 0x70, 0x6f, 0x6f, 0x6c, 0x69, 0x6e, 0x67,
  0x32, 0x64, 0x5f, 0x31, 0x5f, 0x32, 0x2f, 0x4d, 0x61, 0x78, 0x50, 0x6f,
  0x6f, 0x6c, 0x32, 0x64, 0x00, 0x00, 0x00, 0x00, 0x04, 0x00, 0x00, 0x00,
  0x01, 0x00, 0x00, 0x00, 0x05, 0x00, 0x00, 0x00, 0x05, 0x00, 0x00, 0x00,
  0x10, 0x00, 0x00, 0x00, 0x92, 0xf7, 0xff, 0xff, 0x00, 0x00, 0x00, 0x01,
  0x18, 0x00, 0x00, 0x00, 0x28, 0x00, 0x00, 0x00, 0x44, 0x00, 0x00, 0x00,
  0x0c, 0x00, 0x00, 0x00, 0x00, 0x00, 0x00, 0x09, 0xc0, 0x00, 0x00, 0x00,
  0x04, 0x00, 0x00, 0x00, 0xff, 0xff, 0xff, 0xff, 0x0b, 0x00, 0x00, 0x00,
  0x0b, 0x00, 0x00, 0x00, 0x10, 0x00, 0x00, 0x00, 0x7c, 0xf7, 0xff, 0xff,
  0x08, 0x00, 0x00, 0x00, 0x10, 0x00, 0x00, 0x00, 0x01, 0x00, 0x00, 0x00,
  0x80, 0xff, 0xff, 0xff, 0xff, 0xff, 0xff, 0xff, 0x01, 0x00, 0x00, 0x00,
  0x1d, 0x2d, 0x13, 0x3d, 0x80, 0x00, 0x00, 0x00, 0x73, 0x65, 0x71, 0x75,
  0x65, 0x6e, 0x74, 0x69, 0x61, 0x6c, 0x5f, 0x31, 0x2f, 0x63, 0x6f, 0x6e,
  0x76, 0x32, 0x64, 0x5f, 0x31, 0x5f, 0x32, 0x2f, 0x52, 0x65, 0x6c, 0x75,
  0x3b, 0x73, 0x65, 0x71, 0x75, 0x65, 0x6e, 0x74, 0x69, 0x61, 0x6c, 0x5f,
  0x31, 0x2f, 0x63, 0x6f, 0x6e, 0x76, 0x32, 0x64, 0x5f, 0x31, 0x5f, 0x32,
  0x2f, 0x42, 0x69, 0x61, 0x73, 0x41, 0x64, 0x64, 0x3b, 0x73, 0x65, 0x71,
  0x75, 0x65, 0x6e, 0x74, 0x69, 0x61, 0x6c, 0x5f, 0x31, 0x2f, 0x63, 0x6f,
  0x6e, 0x76, 0x32, 0x64, 0x5f, 0x31, 0x5f, 0x32, 0x2f, 0x63, 0x6f, 0x6e,
  0x76, 0x6f, 0x6c, 0x75, 0x74, 0x69, 0x6f, 0x6e, 0x3b, 0x73, 0x65, 0x71,
  0x75, 0x65, 0x6e, 0x74, 0x69, 0x61, 0x6c, 0x5f, 0x31, 0x2f, 0x63, 0x6f,
  0x6e, 0x76, 0x32, 0x64, 0x5f, 0x31, 0x5f, 0x32, 0x2f, 0x53, 0x71, 0x75,
  0x65, 0x65, 0x7a, 0x65, 0x00, 0x00, 0x00, 0x00, 0x04, 0x00, 0x00, 0x00,
  0x01, 0x00, 0x00, 0x00, 0x0b, 0x00, 0x00, 0x00, 0x0b, 0x00, 0x00, 0x00,
  0x10, 0x00, 0x00, 0x00, 0x82, 0xf8, 0xff, 0xff, 0x00, 0x00, 0x00, 0x01,
  0x18, 0x00, 0x00, 0x00, 0x28, 0x00, 0x00, 0x00, 0x48, 0x00, 0x00, 0x00,
  0x0b, 0x00, 0x00, 0x00, 0x00, 0x00, 0x00, 0x09, 0x68, 0x00, 0x00, 0x00,
  0x04, 0x00, 0x00, 0x00, 0xff, 0xff, 0xff, 0xff, 0x0d, 0x00, 0x00, 0x00,
  0x0d, 0x00, 0x00, 0x00, 0x08, 0x00, 0x00, 0x00, 0x6c, 0xf8, 0xff, 0xff,
  0x08, 0x00, 0x00, 0x00, 0x14, 0x00, 0x00, 0x00, 0x01, 0x00, 0x00, 0x00,
  0x80, 0xff, 0xff, 0xff, 0xff, 0xff, 0xff, 0xff, 0x00, 0x00, 0x00, 0x00,
  0x01, 0x00, 0x00, 0x00, 0x0d, 0x98, 0x1c, 0x3c, 0x26, 0x00, 0x00, 0x00,
  0x73, 0x65, 0x71, 0x75, 0x65, 0x6e, 0x74, 0x69, 0x61, 0x6c, 0x5f, 0x31,
  0x2f, 0x6d, 0x61, 0x78, 0x5f, 0x70, 0x6f, 0x6f, 0x6c, 0x69, 0x6e, 0x67,
  0x32, 0x64, 0x5f, 0x31, 0x2f, 0x4d, 0x61, 0x78, 0x50, 0x6f, 0x6f, 0x6c,
  0x32, 0x64, 0x00, 0x00, 0x04, 0x00, 0x00, 0x00, 0x01, 0x00, 0x00, 0x00,
  0x0d, 0x00, 0x00, 0x00, 0x0d, 0x00, 0x00, 0x00, 0x08, 0x00, 0x00, 0x00,
  0x1a, 0xf9, 0xff, 0xff, 0x00, 0x00, 0x00, 0x01, 0x18, 0x00, 0x00, 0x00,
  0x28, 0x00, 0x00, 0x00, 0x48, 0x00, 0x00, 0x00, 0x0a, 0x00, 0x00, 0x00,
  0x00, 0x00, 0x00, 0x09, 0xa0, 0x00, 0x00, 0x00, 0x04, 0x00, 0x00, 0x00,
  0xff, 0xff, 0xff, 0xff, 0x1a, 0x00, 0x00, 0x00, 0x1a, 0x00, 0x00, 0x00,
  0x08, 0x00, 0x00, 0x00, 0x04, 0xf9, 0xff, 0xff, 0x08, 0x00, 0x00, 0x00,
  0x14, 0x00, 0x00, 0x00, 0x01, 0x00, 0x00, 0x00, 0x80, 0xff, 0xff, 0xff,
  0xff, 0xff, 0xff, 0xff, 0x00, 0x00, 0x00, 0x00, 0x01, 0x00, 0x00, 0x00,
  0x0d, 0x98, 0x1c, 0x3c, 0x5c, 0x00, 0x00, 0x00, 0x73, 0x65, 0x71, 0x75,
  0x65, 0x6e, 0x74, 0x69, 0x61, 0x6c, 0x5f, 0x31, 0x2f, 0x63, 0x6f, 0x6e,
  0x76, 0x32, 0x64, 0x5f, 0x31, 0x2f, 0x52, 0x65, 0x6c, 0x75, 0x3b, 0x73,
  0x65, 0x71, 0x75, 0x65, 0x6e, 0x74, 0x69, 0x61, 0x6c, 0x5f, 0x31, 0x2f,
  0x63, 0x6f, 0x6e, 0x76, 0x32, 0x64, 0x5f, 0x31, 0x2f, 0x42, 0x69, 0x61,
  0x73, 0x41, 0x64, 0x64, 0x3b, 0x73, 0x65, 0x71, 0x75, 0x65, 0x6e, 0x74,
  0x69, 0x61, 0x6c, 0x5f, 0x31, 0x2f, 0x63, 0x6f, 0x6e, 0x76, 0x32, 0x64,
  0x5f, 0x31, 0x2f, 0x63, 0x6f, 0x6e, 0x76, 0x6f, 0x6c, 0x75, 0x74, 0x69,
  0x6f, 0x6e, 0x3b, 0x31, 0x00, 0x00, 0x00, 0x00, 0x04, 0x00, 0x00, 0x00,
  0x01, 0x00, 0x00, 0x00, 0x1a, 0x00, 0x00, 0x00, 0x1a, 0x00, 0x00, 0x00,
  0x08, 0x00, 0x00, 0x00, 0xea, 0xf9, 0xff, 0xff, 0x00, 0x00, 0x00, 0x01,
  0x18, 0x00, 0x00, 0x00, 0x28, 0x00, 0x00, 0x00, 0x48, 0x00, 0x00, 0x00,
  0x09, 0x00, 0x00, 0x00, 0x00, 0x00, 0x00, 0x09, 0x50, 0x00, 0x00, 0x00,
  0x04, 0x00, 0x00, 0x00, 0xff, 0xff, 0xff, 0xff, 0x1c, 0x00, 0x00, 0x00,
  0x1c, 0x00, 0x00, 0x00, 0x01, 0x00, 0x00, 0x00, 0xd4, 0xf9, 0xff, 0xff,
  0x08, 0x00, 0x00, 0x00, 0x14, 0x00, 0x00, 0x00, 0x01, 0x00, 0x00, 0x00,
  0x80, 0xff, 0xff, 0xff, 0xff, 0xff, 0xff, 0xff, 0x00, 0x00, 0x00, 0x00,
  0x01, 0x00, 0x00, 0x00, 0x81, 0x80, 0x80, 0x3b, 0x0c, 0x00, 0x00, 0x00,
  0x74, 0x66, 0x6c, 0x2e, 0x71, 0x75, 0x61, 0x6e, 0x74, 0x69, 0x7a, 0x65,
  0x00, 0x00, 0x00, 0x00, 0x04, 0x00, 0x00, 0x00, 0x01, 0x00, 0x00, 0x00,
  0x1c, 0x00, 0x00, 0x00, 0x1c, 0x00, 0x00, 0x00, 0x01, 0x00, 0x00, 0x00,
  0xc2, 0xfa, 0xff, 0xff, 0x00, 0x00, 0x00, 0x01, 0x14, 0x00, 0x00, 0x00,
  0x88, 0x00, 0x00, 0x00, 0x08, 0x00, 0x00, 0x00, 0x00, 0x00, 0x00, 0x09,
  0x94, 0x00, 0x00, 0x00, 0x3c, 0xfa, 0xff, 0xff, 0x08, 0x00, 0x00, 0x00,
  0x4c, 0x00, 0x00, 0x00, 0x08, 0x00, 0x00, 0x00, 0x00, 0x00, 0x00, 0x00,
  0x00, 0x00, 0x00, 0x00, 0x00, 0x00, 0x00, 0x00, 0x00, 0x00, 0x00, 0x00,
  0x00, 0x00, 0x00, 0x00, 0x00, 0x00, 0x00, 0x00, 0x00, 0x00, 0x00, 0x00,
  0x00, 0x00, 0x00, 0x00, 0x00, 0x00, 0x00, 0x00, 0x00, 0x00, 0x00, 0x00,
  0x00, 0x00, 0x00, 0x00, 0x00, 0x00, 0x00, 0x00, 0x00, 0x00, 0x00, 0x00,
  0x00, 0x00, 0x00, 0x00, 0x00, 0x00, 0x00, 0x00, 0x00, 0x00, 0x00, 0x00,
  0x00, 0x00, 0x00, 0x00, 0x08, 0x00, 0x00, 0x00, 0xcd, 0xa1, 0x70, 0x3b,
  0x02, 0xd5, 0x67, 0x3b, 0x90, 0x1c, 0x72, 0x3b, 0x49, 0xd7, 0x57, 0x3b,
  0x1c, 0x60, 0x65, 0x3b, 0xc5, 0xf3, 0x8a, 0x3b, 0xcb, 0x7e, 0x67, 0x3b,
  0xfa, 0x47, 0x63, 0x3b, 0x12, 0x00, 0x00, 0x00, 0x74, 0x66, 0x6c, 0x2e,
  0x70, 0x73, 0x65, 0x75, 0x64, 0x6f, 0x5f, 0x71, 0x63, 0x6f, 0x6e, 0x73,
  0x74, 0x35, 0x00, 0x00, 0x04, 0x00, 0x00, 0x00, 0x08, 0x00, 0x00, 0x00,
  0x03, 0x00, 0x00, 0x00, 0x03, 0x00, 0x00, 0x00, 0x01, 0x00, 0x00, 0x00,
  0x82, 0xfb, 0xff, 0xff, 0x00, 0x00, 0x00, 0x01, 0x14, 0x00, 0x00, 0x00,
  0x84, 0x00, 0x00, 0x00, 0x07, 0x00, 0x00, 0x00, 0x00, 0x00, 0x00, 0x02,
  0x90, 0x00, 0x00, 0x00, 0xfc, 0xfa, 0xff, 0xff, 0x08, 0x00, 0x00, 0x00,
  0x48, 0x00, 0x00, 0x00, 0x08, 0x00, 0x00, 0x00, 0x00, 0x00, 0x00, 0x00,
  0x00, 0x00, 0x00, 0x00, 0x00, 0x00, 0x00, 0x00, 0x00, 0x00, 0x00, 0x00,
  0x00, 0x00, 0x00, 0x00, 0x00, 0x00, 0x00, 0x00, 0x00, 0x00, 0x00, 0x00,
  0x00, 0x00, 0x00, 0x00, 0x00, 0x00, 0x00, 0x00, 0x00, 0x00, 0x00, 0x00,
  0x00, 0x00, 0x00, 0x00, 0x00, 0x00, 0x00, 0x00, 0x00, 0x00, 0x00, 0x00,
  0x00, 0x00, 0x00, 0x00, 0x00, 0x00, 0x00, 0x00, 0x00, 0x00, 0x00, 0x00,
  0x08, 0x00, 0x00, 0x00, 0x61, 0x93, 0x71, 0x37, 0xc1, 0xbd, 0x68, 0x37,
  0xa1, 0x0f, 0x73, 0x37, 0xfa, 0xaf, 0x58, 0x37, 0x63, 0x46, 0x66, 0x37,
  0x45, 0x7f, 0x8b, 0x37, 0x33, 0x67, 0x68, 0x37, 0x27, 0x2c, 0x64, 0x37,
  0x12, 0x00, 0x00, 0x00, 0x74, 0x66, 0x6c, 0x2e, 0x70, 0x73, 0x65, 0x75,
  0x64, 0x6f, 0x5f, 0x71, 0x63, 0x6f, 0x6e, 0x73, 0x74, 0x34, 0x00, 0x00,
  0x01, 0x00, 0x00, 0x00, 0x08, 0x00, 0x00, 0x00, 0x32, 0xfc, 0xff, 0xff,
  0x00, 0x00, 0x00, 0x01, 0x14, 0x00, 0x00, 0x00, 0xe8, 0x00, 0x00, 0x00,
  0x06, 0x00, 0x00, 0x00, 0x00, 0x00, 0x00, 0x09, 0xf4, 0x00, 0x00, 0x00,
  0xac, 0xfb, 0xff, 0xff, 0x08, 0x00, 0x00, 0x00, 0x8c, 0x00, 0x00, 0x00,
  0x10, 0x00, 0x00, 0x00, 0x00, 0x00, 0x00, 0x00, 0x00, 0x00, 0x00, 0x00,
  0x00, 0x00, 0x00, 0x00, 0x00, 0x00, 0x00, 0x00, 0x00, 0x00, 0x00, 0x00,
  0x00, 0x00, 0x00, 0x00, 0x00, 0x00, 0x00, 0x00, 0x00, 0x00, 0x00, 0x00,
  0x00, 0x00, 0x00, 0x00, 0x00, 0x00, 0x00, 0x00, 0x00, 0x00, 0x00, 0x00,
  0x00, 0x00, 0x00, 0x00, 0x00, 0x00, 0x00, 0x00, 0x00, 0x00, 0x00, 0x00,
  0x00, 0x00, 0x00, 0x00, 0x00, 0x00, 0x00, 0x00, 0x00, 0x00, 0x00, 0x00,
  0x00, 0x00, 0x00, 0x00, 0x00, 0x00, 0x00, 0x00, 0x00, 0x00, 0x00, 0x00,
  0x00, 0x00, 0x00, 0x00, 0x00, 0x00, 0x00, 0x00, 0x00, 0x00, 0x00, 0x00,
  0x00, 0x00, 0x00, 0x00, 0x00, 0x00, 0x00, 0x00, 0x00, 0x00, 0x00, 0x00,
  0x00, 0x00, 0x00, 0x00, 0x00, 0x00, 0x00, 0x00, 0x00, 0x00, 0x00, 0x00,
  0x00, 0x00, 0x00, 0x00, 0x00, 0x00, 0x00, 0x00, 0x00, 0x00, 0x00, 0x00,
  0x00, 0x00, 0x00, 0x00, 0x10, 0x00, 0x00, 0x00, 0x3e, 0x6c, 0x3e, 0x3b,
  0xb8, 0x72, 0x75, 0x3b, 0xeb, 0x3f, 0x35, 0x3b, 0x1c, 0x57, 0xa1, 0x3b,
  0x3f, 0xf3, 0x5d, 0x3b, 0xb8, 0x52, 0x5b, 0x3b, 0x0f, 0x4d, 0x8c, 0x3b,
  0xe1, 0x3a, 0x4e, 0x3b, 0x63, 0x7c, 0x83, 0x3b, 0x30, 0xf7, 0x2b, 0x3b,
  0xe6, 0xf5, 0x48, 0x3b, 0x9a, 0xb4, 0x18, 0x3b, 0xc7, 0xc0, 0x90, 0x3b,
  0xa7, 0x99, 0x49, 0x3b, 0x0d, 0x38, 0x51, 0x3b, 0xbf, 0xa9, 0x5a, 0x3b,
  0x12, 0x00, 0x00, 0x00, 0x74, 0x66, 0x6c, 0x2e, 0x70, 0x73, 0x65, 0x75,
  0x64, 0x6f, 0x5f, 0x71, 0x63, 0x6f, 0x6e, 0x73, 0x74, 0x33, 0x00, 0x00,
  0x04, 0x00, 0x00, 0x00, 0x10, 0x00, 0x00, 0x00, 0x03, 0x00, 0x00, 0x00,
  0x03, 0x00, 0x00, 0x00, 0x08, 0x00, 0x00, 0x00, 0x52, 0xfd, 0xff, 0xff,
  0x00, 0x00, 0x00, 0x01, 0x14, 0x00, 0x00, 0x00, 0xe4, 0x00, 0x00, 0x00,
  0x05, 0x00, 0x00, 0x00, 0x00, 0x00, 0x00, 0x02, 0xf0, 0x00, 0x00, 0x00,
  0xcc, 0xfc, 0xff, 0xff, 0x08, 0x00, 0x00, 0x00, 0x88, 0x00, 0x00, 0x00,
  0x10, 0x00, 0x00, 0x00, 0x00, 0x00, 0x00, 0x00, 0x00, 0x00, 0x00, 0x00,
  0x00, 0x00, 0x00, 0x00, 0x00, 0x00, 0x00, 0x00, 0x00, 0x00, 0x00, 0x00,
  0x00, 0x00, 0x00, 0x00, 0x00, 0x00, 0x00, 0x00, 0x00, 0x00, 0x00, 0x00,
  0x00, 0x00, 0x00, 0x00, 0x00, 0x00, 0x00, 0x00, 0x00, 0x00, 0x00, 0x00,
  0x00, 0x00, 0x00, 0x00, 0x00, 0x00, 0x00, 0x00, 0x00, 0x00, 0x00, 0x00,
  0x00, 0x00, 0x00, 0x00, 0x00, 0x00, 0x00, 0x00, 0x00, 0x00, 0x00, 0x00,
  0x00, 0x00, 0x00, 0x00, 0x00, 0x00, 0x00, 0x00, 0x00, 0x00, 0x00, 0x00,
  0x00, 0x00, 0x00, 0x00, 0x00, 0x00, 0x00, 0x00, 0x00, 0x00, 0x00, 0x00,
  0x00, 0x00, 0x00, 0x00, 0x00, 0x00, 0x00, 0x00, 0x00, 0x00, 0x00, 0x00,
  0x00, 0x00, 0x00, 0x00, 0x00, 0x00, 0x00, 0x00, 0x00, 0x00, 0x00, 0x00,
  0x00, 0x00, 0x00, 0x00, 0x00, 0x00, 0x00, 0x00, 0x00, 0x00, 0x00, 0x00,
  0x10, 0x00, 0x00, 0x00, 0x1f, 0xf6, 0xe8, 0x37, 0xb1, 0x23, 0x16, 0x38,
  0x35, 0xbd, 0xdd, 0x37, 0xd2, 0x61, 0x45, 0x38, 0x0e, 0xc4, 0x07, 0x38,
  0xac, 0x28, 0x06, 0x38, 0x94, 0xa4, 0x2b, 0x38, 0xbd, 0x4c, 0xfc, 0x37,
  0xca, 0xdb, 0x20, 0x38, 0x8a, 0x61, 0xd2, 0x37, 0x69, 0xda, 0xf5, 0x37,
  0x82, 0xd1, 0xba, 0x37, 0xe6, 0x16, 0x31, 0x38, 0xbe, 0xa2, 0xf6, 0x37,
  0xd8, 0xf4, 0xff, 0x37, 0x50, 0xc1, 0x05, 0x38, 0x12, 0x00, 0x00, 0x00,
  0x74, 0x66, 0x6c, 0x2e, 0x70, 0x73, 0x65, 0x75, 0x64, 0x6f, 0x5f, 0x71,
  0x63, 0x6f, 0x6e, 0x73, 0x74, 0x32, 0x00, 0x00, 0x01, 0x00, 0x00, 0x00,
  0x10, 0x00, 0x00, 0x00, 0x62, 0xfe, 0xff, 0xff, 0x00, 0x00, 0x00, 0x01,
  0x14, 0x00, 0x00, 0x00, 0xa0, 0x00, 0x00, 0x00, 0x04, 0x00, 0x00, 0x00,
  0x00, 0x00, 0x00, 0x09, 0xac, 0x00, 0x00, 0x00, 0xdc, 0xfd, 0xff, 0xff,
  0x08, 0x00, 0x00, 0x00, 0x5c, 0x00, 0x00, 0x00, 0x0a, 0x00, 0x00, 0x00,
  0x00, 0x00, 0x00, 0x00, 0x00, 0x00, 0x00, 0x00, 0x00, 0x00, 0x00, 0x00,
  0x00, 0x00, 0x00, 0x00, 0x00, 0x00, 0x00, 0x00, 0x00, 0x00, 0x00, 0x00,
  0x00, 0x00, 0x00, 0x00, 0x00, 0x00, 0x00, 0x00, 0x00, 0x00, 0x00, 0x00,
  0x00, 0x00, 0x00, 0x00, 0x00, 0x00, 0x00, 0x00, 0x00, 0x00, 0x00, 0x00,
  0x00, 0x00, 0x00, 0x00, 0x00, 0x00, 0x00, 0x00, 0x00, 0x00, 0x00, 0x00,
  0x00, 0x00, 0x00, 0x00, 0x00, 0x00, 0x00, 0x00, 0x00, 0x00, 0x00, 0x00,
  0x00, 0x00, 0x00, 0x00, 0x00, 0x00, 0x00, 0x00, 0x00, 0x00, 0x00, 0x00,
  0x0a, 0x00, 0x00, 0x00, 0xfd, 0x41, 0x53, 0x3b, 0xa1, 0xd1, 0x5d, 0x3b,
  0xa2, 0xd3, 0x4a, 0x3b, 0x99, 0xd3, 0x41, 0x3b, 0x0a, 0xe8, 0x66, 0x3b,
  0x4b, 0xcc, 0x49, 0x3b, 0x14, 0x63, 0x7c, 0x3b, 0x81, 0xfa, 0x3d, 0x3b,
  0x3e, 0x4a, 0x4a, 0x3b, 0x9b, 0xe2, 0x85, 0x3b, 0x12, 0x00, 0x00, 0x00,
  0x74, 0x66, 0x6c, 0x2e, 0x70, 0x73, 0x65, 0x75, 0x64, 0x6f, 0x5f, 0x71,
  0x63, 0x6f, 0x6e, 0x73, 0x74, 0x31, 0x00, 0x00, 0x02, 0x00, 0x00, 0x00,
  0x0a, 0x00, 0x00, 0x00, 0x90, 0x01, 0x00, 0x00, 0x32, 0xff, 0xff, 0xff,
  0x00, 0x00, 0x00, 0x01, 0x14, 0x00, 0x00, 0x00, 0xa0, 0x00, 0x00, 0x00,
  0x03, 0x00, 0x00, 0x00, 0x00, 0x00, 0x00, 0x02, 0xac, 0x00, 0x00, 0x00,
  0xac, 0xfe, 0xff, 0xff, 0x08, 0x00, 0x00, 0x00, 0x5c, 0x00, 0x00, 0x00,
  0x0a, 0x00, 0x00, 0x00, 0x00, 0x00, 0x00, 0x00, 0x00, 0x00, 0x00, 0x00,
  0x00, 0x00, 0x00, 0x00, 0x00, 0x00, 0x00, 0x00, 0x00, 0x00, 0x00, 0x00,
  0x00, 0x00, 0x00, 0x00, 0x00, 0x00, 0x00, 0x00, 0x00, 0x00, 0x00, 0x00,
  0x00, 0x00, 0x00, 0x00, 0x00, 0x00, 0x00, 0x00, 0x00, 0x00, 0x00, 0x00,
  0x00, 0x00, 0x00, 0x00, 0x00, 0x00, 0x00, 0x00, 0x00, 0x00, 0x00, 0x00,
  0x00, 0x00, 0x00, 0x00, 0x00, 0x00, 0x00, 0x00, 0x00, 0x00, 0x00, 0x00,
  0x00, 0x00, 0x00, 0x00, 0x00, 0x00, 0x00, 0x00, 0x00, 0x00, 0x00, 0x00,
  0x00, 0x00, 0x00, 0x00, 0x0a, 0x00, 0x00, 0x00, 0x3e, 0xe8, 0xf2, 0x38,
  0xed, 0x0c, 0xff, 0x38, 0x88, 0x36, 0xe9, 0x38, 0x52, 0xdd, 0xde, 0x38,
  0xef, 0xbf, 0x04, 0x39, 0xbe, 0x07, 0xe8, 0x38, 0x5e, 0x19, 0x11, 0x39,
  0xa5, 0x70, 0xda, 0x38, 0x8f, 0x98, 0xe8, 0x38, 0x6e, 0xf1, 0x19, 0x39,
  0x11, 0x00, 0x00, 0x00, 0x74, 0x66, 0x6c, 0x2e, 0x70, 0x73, 0x65, 0x75,
  0x64, 0x6f, 0x5f, 0x71, 0x63, 0x6f, 0x6e, 0x73, 0x74, 0x00, 0x00, 0x00,
  0x01, 0x00, 0x00, 0x00, 0x0a, 0x00, 0x00, 0x00, 0x00, 0x00, 0x16, 0x00,
  0x1c, 0x00, 0x18, 0x00, 0x17, 0x00, 0x10, 0x00, 0x0c, 0x00, 0x08, 0x00,
  0x00, 0x00, 0x00, 0x00, 0x00, 0x00, 0x07, 0x00, 0x16, 0x00, 0x00, 0x00,
  0x00, 0x00, 0x00, 0x01, 0x18, 0x00, 0x00, 0x00, 0x18, 0x00, 0x00, 0x00,
  0x02, 0x00, 0x00, 0x00, 0x00, 0x00, 0x00, 0x02, 0x20, 0x00, 0x00, 0x00,
  0x04, 0x00, 0x04, 0x00, 0x04, 0x00, 0x00, 0x00, 0x0e, 0x00, 0x00, 0x00,
  0x61, 0x72, 0x69, 0x74, 0x68, 0x2e, 0x63, 0x6f, 0x6e, 0x73, 0x74, 0x61,
  0x6e, 0x74, 0x00, 0x00, 0x01, 0x00, 0x00, 0x00, 0x02, 0x00, 0x00, 0x00,
  0x00, 0x00, 0x16, 0x00, 0x20, 0x00, 0x1c, 0x00, 0x1b, 0x00, 0x14, 0x00,
  0x10, 0x00, 0x0c, 0x00, 0x00, 0x00, 0x00, 0x00, 0x08, 0x00, 0x07, 0x00,
  0x16, 0x00, 0x00, 0x00, 0x00, 0x00, 0x00, 0x01, 0x18, 0x00, 0x00, 0x00,
  0x34, 0x00, 0x00, 0x00, 0x54, 0x00, 0x00, 0x00, 0x01, 0x00, 0x00, 0x00,
  0x00, 0x00, 0x00, 0x03, 0x6c, 0x00, 0x00, 0x00, 0x04, 0x00, 0x00, 0x00,
  0xff, 0xff, 0xff, 0xff, 0x1c, 0x00, 0x00, 0x00, 0x1c, 0x00, 0x00, 0x00,
  0x01, 0x00, 0x00, 0x00, 0x0c, 0x00, 0x0c, 0x00, 0x00, 0x00, 0x00, 0x00,
  0x08, 0x00, 0x04, 0x00, 0x0c, 0x00, 0x00, 0x00, 0x08, 0x00, 0x00, 0x00,
  0x14, 0x00, 0x00, 0x00, 0x01, 0x00, 0x00, 0x00, 0x00, 0x00, 0x00, 0x00,
  0x00, 0x00, 0x00, 0x00, 0x00, 0x00, 0x00, 0x00, 0x01, 0x00, 0x00, 0x00,
  0x81, 0x80, 0x80, 0x3b, 0x1d, 0x00, 0x00, 0x00, 0x73, 0x65, 0x72, 0x76,
  0x69, 0x6e, 0x67, 0x5f, 0x64, 0x65, 0x66, 0x61, 0x75, 0x6c, 0x74, 0x5f,
  0x69, 0x6e, 0x70, 0x75, 0x74, 0x5f, 0x6c, 0x61, 0x79, 0x65, 0x72, 0x3a,
  0x30, 0x00, 0x00, 0x00, 0x04, 0x00, 0x00, 0x00, 0x01, 0x00, 0x00, 0x00,
  0x1c, 0x00, 0x00, 0x00, 0x1c, 0x00, 0x00, 0x00, 0x01, 0x00, 0x00, 0x00,
  0x06, 0x00, 0x00, 0x00, 0x7c, 0x00, 0x00, 0x00, 0x5c, 0x00, 0x00, 0x00,
  0x3c, 0x00, 0x00, 0x00, 0x2c, 0x00, 0x00, 0x00, 0x18, 0x00, 0x00, 0x00,
  0x04, 0x00, 0x00, 0x00, 0xc4, 0xff, 0xff, 0xff, 0x19, 0x00, 0x00, 0x00,
  0x02, 0x00, 0x00, 0x00, 0x00, 0x00, 0x00, 0x19, 0xd4, 0xff, 0xff, 0xff,
  0x09, 0x00, 0x00, 0x00, 0x04, 0x00, 0x00, 0x00, 0x00, 0x00, 0x00, 0x09,
  0xc8, 0xff, 0xff, 0xff, 0x16, 0x00, 0x00, 0x00, 0x00, 0x00, 0x00, 0x16,
  0xf0, 0xff, 0xff, 0xff, 0x11, 0x00, 0x00, 0x00, 0x02, 0x00, 0x00, 0x00,
  0x00, 0x00, 0x00, 0x11, 0x0c, 0x00, 0x10, 0x00, 0x0f, 0x00, 0x00, 0x00,
  0x08, 0x00, 0x04, 0x00, 0x0c, 0x00, 0x00, 0x00, 0x03, 0x00, 0x00, 0x00,
  0x03, 0x00, 0x00, 0x00, 0x00, 0x00, 0x00, 0x03, 0x0c, 0x00, 0x0c, 0x00,
  0x0b, 0x00, 0x00, 0x00, 0x00, 0x00, 0x04, 0x00, 0x0c, 0x00, 0x00, 0x00,
  0x72, 0x00, 0x00, 0x00, 0x00, 0x00, 0x00, 0x72
};
unsigned int mnist_cnn_int8_tflite_len = 9968;
